<s>	0
<pad>	0
</s>	0
<unk>	0
.	-3.13358
,	-3.21486
▁the	-3.33938
▁to	-3.44245
▁you	-3.60268
'	-3.6333
▁and	-3.7014
▁a	-3.81547
s	-3.86931
▁it	-4.07219
▁that	-4.16572
▁of	-4.24286
▁is	-4.33794
▁i	-4.50987
▁in	-4.57678
▁your	-4.65444
▁going	-4.66909
/	-4.73215
▁we	-4.7382
▁this	-4.79473
▁so	-4.81305
re	-4.8344
▁on	-4.99712
▁can	-5.09072
▁have	-5.12122
▁with	-5.24967
m	-5.2744
▁be	-5.28008
▁just	-5.30087
▁are	-5.32253
▁want	-5.32373
▁for	-5.35446
▁do	-5.37063
t	-5.39047
▁if	-5.44086
r	-5.49594
▁or	-5.50525
ing	-5.54146
▁up	-5.54325
_	-5.59216
▁like	-5.65389
▁they	-5.67601
▁get	-5.68668
▁what	-5.70072
▁one	-5.71227
▁there	-5.73937
▁as	-5.74078
▁now	-5.76075
▁out	-5.76382
▁	-5.77742
▁little	-5.78559
▁here	-5.80662
▁make	-5.82665
▁go	-5.84014
▁then	-5.85288
▁but	-5.86938
▁not	-5.92313
▁about	-5.93602
▁when	-5.95515
▁all	-5.99474
▁my	-5.99669
▁will	-6.05945
▁how	-6.10461
▁back	-6.11253
▁at	-6.11601
sign	-6.12253
front	-6.12267
gb	-6.12775
▁some	-6.12956
ll	-6.13006
▁right	-6.13987
▁use	-6.14562
▁really	-6.15944
▁don	-6.17461
▁down	-6.18397
▁very	-6.20026
▁because	-6.23096
ed	-6.23618
▁our	-6.24863
▁way	-6.25211
▁from	-6.28146
2	-6.28935
▁take	-6.29277
ve	-6.31177
▁more	-6.31483
▁put	-6.34973
▁an	-6.36132
-	-6.37165
▁good	-6.37392
▁them	-6.38732
▁see	-6.3966
▁into	-6.4041
▁sure	-6.46071
▁bit	-6.48949
how	-6.51205
▁also	-6.51346
data	-6.52195
mediapipe	-6.53332
▁lot	-6.5382
▁need	-6.54748
▁would	-6.5673
▁know	-6.582
▁over	-6.59134
▁these	-6.60181
▁off	-6.60649
▁kind	-6.64178
▁two	-6.65715
d	-6.65796
▁time	-6.67201
▁where	-6.67671
▁thing	-6.67956
▁other	-6.69149
▁which	-6.70246
▁look	-6.71962
?	-6.74843
e	-6.75253
▁got	-6.77323
c	-6.77631
y	-6.78269
▁side	-6.7931
▁keep	-6.79581
▁first	-6.79974
▁again	-6.8034
▁let	-6.80496
▁nice	-6.80541
▁has	-6.81133
▁any	-6.81522
▁actually	-6.81993
8-	-6.82166
▁come	-6.8223
▁he	-6.82431
g	-6.82868
▁different	-6.83853
▁start	-6.84051
▁around	-6.86009
▁hair	-6.88555
▁ball	-6.92449
▁things	-6.92522
▁her	-6.96197
▁through	-6.96461
▁by	-6.97814
▁much	-6.99145
▁people	-7.01127
▁hand	-7.03942
▁well	-7.04059
▁their	-7.04103
nt	-7.04891
▁three	-7.05539
▁talk	-7.06274
▁give	-7.07907
▁something	-7.11671
▁top	-7.13823
▁those	-7.13921
▁water	-7.14274
▁work	-7.15018
23	-7.17057
▁en	-7.17249
▁important	-7.1743
▁next	-7.18211
n	-7.19783
video	-7.20112
▁show	-7.20331
▁even	-7.20622
pose	-7.20671
08	-7.20762
ego	-7.20928
vp	-7.2175
pid	-7.21816
sets	-7.21911
train	-7.21979
features	-7.22376
level	-7.22381
▁asl	-7.2285
;	-7.23268
▁most	-7.23401
▁me	-7.24133
▁once	-7.24705
▁using	-7.25949
▁doing	-7.26603
▁step	-7.26939
▁same	-7.29409
▁might	-7.29818
▁okay	-7.29821
▁body	-7.30435
▁find	-7.32762
▁another	-7.34007
er	-7.34831
▁too	-7.36457
▁always	-7.36607
▁could	-7.37268
▁she	-7.37565
▁pull	-7.38836
▁hi	-7.39372
▁line	-7.40587
▁try	-7.40716
▁left	-7.41787
▁was	-7.41795
▁before	-7.42952
▁say	-7.44054
▁great	-7.44588
ly	-7.44911
▁help	-7.45663
▁color	-7.45795
▁part	-7.4586
▁cut	-7.46049
▁than	-7.48448
▁turn	-7.48515
▁think	-7.48589
▁ahead	-7.49541
▁hold	-7.50882
▁should	-7.52699
▁place	-7.54252
▁today	-7.55165
▁head	-7.55381
▁pretty	-7.56455
▁no	-7.56817
▁bring	-7.5839
▁add	-7.60442
▁type	-7.61613
▁may	-7.62809
▁skin	-7.63103
▁maybe	-7.63964
▁front	-7.66267
▁forward	-7.66295
▁end	-7.67436
▁foot	-7.67476
▁long	-7.68029
▁set	-7.68739
▁piece	-7.69368
al	-7.69695
▁his	-7.70247
▁four	-7.70824
▁move	-7.71263
▁open	-7.7199
i	-7.72358
▁doesn	-7.72449
▁done	-7.72682
▁able	-7.73982
▁getting	-7.74687
▁many	-7.75605
▁feel	-7.75719
▁every	-7.75927
▁point	-7.76345
▁called	-7.76675
▁hands	-7.772
▁leg	-7.78294
▁feet	-7.78546
▁together	-7.79542
▁big	-7.80048
6	-7.80724
▁straight	-7.81916
▁best	-7.82055
▁only	-7.82212
▁name	-7.82298
▁2	-7.82327
▁inside	-7.82751
▁each	-7.84027
▁area	-7.84219
▁still	-7.84379
▁paper	-7.84382
a	-7.84974
▁sometimes	-7.85807
o	-7.86409
▁tell	-7.86864
▁been	-7.8709
▁does	-7.87554
▁him	-7.87713
▁bottom	-7.88128
▁remember	-7.8872
▁1	-7.89278
▁basically	-7.89467
9	-7.89653
▁"	-7.90403
▁after	-7.90963
▁who	-7.91333
5	-7.92145
▁play	-7.92198
▁used	-7.92627
▁car	-7.9356
▁probably	-7.93645
▁usually	-7.94035
▁making	-7.94817
▁away	-7.94966
▁five	-7.95238
▁half	-7.96399
▁face	-7.96402
▁oil	-7.9663
▁small	-7.96736
k	-7.97672
▁goes	-7.97867
▁dog	-7.98195
▁light	-7.98284
▁yourself	-7.98417
▁ready	-7.98449
▁new	-7.98828
▁had	-7.99243
▁lift	-7.99464
▁day	-7.99669
▁coming	-7.99684
▁person	-8.00009
▁hit	-8.00046
▁clean	-8.00605
▁comes	-8.00941
▁talking	-8.01064
▁times	-8.01612
▁position	-8.01762
▁high	-8.02026
▁anything	-8.02152
▁brush	-8.02337
▁looking	-8.02743
1	-8.02811
▁glass	-8.02976
▁throw	-8.03039
▁everything	-8.03429
▁working	-8.04379
	-8.04722
▁easy	-8.05593
▁white	-8.05782
▁while	-8.06484
▁course	-8.08254
▁better	-8.08705
▁enough	-8.08706
w	-8.08813
▁clip	-8.08889
l	-8.10367
▁made	-8.12399
â	-8.12529
es	-8.12807
▁under	-8.13323
▁hard	-8.14649
▁practice	-8.14753
:	-8.15234
▁couple	-8.15717
▁paint	-8.15904
▁center	-8.16006
▁basic	-8.1606
▁push	-8.16092
▁buy	-8.16181
▁size	-8.16259
▁real	-8.16391
▁between	-8.1718
▁being	-8.17317
v	-8.18565
▁dry	-8.18672
▁both	-8.19466
▁fish	-8.1978
▁run	-8.20645
▁number	-8.20646
▁us	-8.20953
▁looks	-8.21097
▁draw	-8.21569
▁03	-8.21625
▁second	-8.21633
▁trying	-8.2207
▁close	-8.22131
▁why	-8.22737
▁either	-8.22741
▁home	-8.22745
▁call	-8.2321
/03	-8.23216
▁room	-8.23264
▁roll	-8.23336
--	-8.23414
▁few	-8.23783
▁whole	-8.24323
▁were	-8.24494
▁flat	-8.24899
▁base	-8.25773
▁whatever	-8.25913
▁tea	-8.25973
▁shot	-8.25987
▁already	-8.26441
▁stick	-8.27118
8	-8.27297
▁am	-8.27324
▁eye	-8.27655
▁last	-8.28014
!	-8.28072
▁cause	-8.28124
▁did	-8.28565
▁legs	-8.28725
▁jump	-8.28776
▁ground	-8.29182
▁kick	-8.30649
▁sort	-8.30912
▁six	-8.31385
▁pick	-8.31388
▁arms	-8.31415
▁middle	-8.31415
▁low	-8.31915
▁alright	-8.31983
having	-8.32003
▁ok	-8.32009
▁stay	-8.32378
/02	-8.33131
▁order	-8.33131
▁02	-8.33143
▁case	-8.33376
▁store	-8.33986
▁fun	-8.34308
▁until	-8.34873
▁edge	-8.3516
▁means	-8.35329
▁far	-8.3551
3	-8.36338
▁board	-8.36378
▁shoulder	-8.36518
▁wire	-8.37012
▁green	-8.37249
▁outside	-8.37314
▁touch	-8.38167
▁apply	-8.38456
▁chest	-8.38456
▁wood	-8.39086
▁knees	-8.39488
"	-8.39707
▁create	-8.39944
▁check	-8.40716
ic	-8.41166
▁drop	-8.41313
▁full	-8.41387
▁example	-8.41543
7	-8.42061
▁own	-8.42723
▁black	-8.42804
▁learn	-8.42848
▁simple	-8.43442
▁floor	-8.43442
▁game	-8.43933
▁types	-8.44231
▁3	-8.4442
on	-8.44582
▁wax	-8.45997
▁comfortable	-8.46689
▁sit	-8.46935
▁underneath	-8.47351
▁neck	-8.47358
▁pressure	-8.48022
▁lower	-8.48102
▁makes	-8.48569
▁moving	-8.48688
▁hip	-8.48698
▁string	-8.49257
▁exhale	-8.49366
▁minutes	-8.49495
▁air	-8.50064
▁press	-8.50317
▁shoulders	-8.50397
▁horse	-8.50708
▁5	-8.50928
▁arm	-8.5096
▁obviously	-8.5212
▁break	-8.52931
▁weight	-8.52975
▁colors	-8.53193
▁towards	-8.53355
▁someone	-8.53575
▁red	-8.53867
▁process	-8.54193
▁wear	-8.54246
▁plant	-8.54651
▁pieces	-8.54771
▁allow	-8.54792
p	-8.54798
▁simply	-8.5494
▁hot	-8.54956
▁leave	-8.55038
▁old	-8.55597
▁fire	-8.5566
▁taking	-8.5566
▁grab	-8.55661
▁without	-8.55748
▁ways	-8.55811
▁stretch	-8.5583
▁won	-8.5641
▁pass	-8.56481
▁along	-8.56571
▁remove	-8.56983
▁notice	-8.57022
▁bag	-8.57129
▁sand	-8.57145
▁fine	-8.57441
▁natural	-8.57791
▁tip	-8.57934
▁house	-8.57982
▁ten	-8.58075
4	-8.58195
▁almost	-8.5859
▁milk	-8.5859
▁said	-8.58591
▁mean	-8.58674
▁never	-8.59337
▁segment	-8.59478
▁particular	-8.60029
▁behind	-8.60089
▁o	-8.60152
▁putting	-8.60186
▁onto	-8.60346
▁quick	-8.60722
▁e	-8.61327
▁6	-8.61688
▁knee	-8.61729
▁hole	-8.61859
▁ask	-8.62164
▁choose	-8.62418
▁across	-8.62493
-3-	-8.62496
▁inch	-8.62847
4-	-8.62889
▁control	-8.63001
▁definitely	-8.63155
▁iron	-8.63403
▁stuff	-8.63524
▁love	-8.63823
▁switch	-8.63935
▁card	-8.63957
▁cup	-8.63992
▁change	-8.64068
▁cover	-8.64399
▁tight	-8.64641
▁such	-8.64724
▁space	-8.64724
▁cross	-8.64739
▁keeping	-8.6484
j	-8.65143
▁fingers	-8.65445
▁level	-8.65488
▁table	-8.65527
▁reason	-8.65834
▁stop	-8.66323
▁twist	-8.66515
▁7	-8.66772
ther	-8.6688
▁cat	-8.66939
▁regular	-8.67874
▁especially	-8.67936
▁amount	-8.68755
▁quit	-8.68757
▁wall	-8.68949
▁catch	-8.69158
▁warm	-8.69188
▁door	-8.69481
0	-8.69559
▁longer	-8.6976
▁design	-8.69776
▁shape	-8.69871
▁heat	-8.69879
▁idea	-8.69971
▁inhale	-8.70415
▁food	-8.70858
▁hook	-8.71046
▁certain	-8.71197
▁angle	-8.71685
▁wheel	-8.7173
▁seven	-8.72101
▁lines	-8.72109
xd	-8.72185
▁years	-8.72322
ion	-8.72808
f	-8.7287
▁proper	-8.72907
▁guy	-8.73476
▁rest	-8.73528
▁running	-8.73826
▁4	-8.74549
▁tail	-8.74675
▁whe	-8.7468
▁easier	-8.74689
▁stand	-8.74858
▁watch	-8.75182
▁8	-8.75208
in	-8.75231
▁re	-8.75843
▁style	-8.76186
▁eyes	-8.76263
▁beautiful	-8.7639
▁speed	-8.76451
▁become	-8.77052
▁gets	-8.7715
▁tape	-8.7732
▁bat	-8.77455
▁pot	-8.77721
▁coat	-8.77738
▁short	-8.7818
▁surface	-8.78245
▁box	-8.78635
▁happens	-8.78697
▁walk	-8.78759
▁product	-8.78897
▁tool	-8.79036
▁glue	-8.7931
▁jack	-8.79872
▁life	-8.80079
▁key	-8.80083
▁exercise	-8.80765
▁direction	-8.80773
ation	-8.80805
▁blue	-8.81004
en	-8.81089
▁tend	-8.81094
▁job	-8.81704
▁section	-8.81721
▁extra	-8.8182
▁somebody	-8.81932
▁bad	-8.81994
▁hips	-8.81999
▁book	-8.82665
▁nail	-8.8268
▁lay	-8.82685
▁dark	-8.82811
▁mind	-8.82871
▁depending	-8.829
▁block	-8.83253
▁system	-8.83639
▁care	-8.83754
▁track	-8.83836
▁massage	-8.84102
▁power	-8.84785
▁else	-8.84789
▁sugar	-8.84789
▁slide	-8.84822
▁spin	-8.8501
▁pose	-8.85243
▁large	-8.85337
▁fabric	-8.8576
▁clay	-8.85767
est	-8.86189
▁less	-8.86196
▁cast	-8.8634
▁button	-8.86654
▁cool	-8.86667
▁free	-8.86678
▁rope	-8.87622
▁boat	-8.87661
▁often	-8.88209
▁helps	-8.88285
▁test	-8.88334
▁cards	-8.88373
▁itself	-8.88731
▁reach	-8.88734
▁fold	-8.8914
▁finish	-8.89143
▁fill	-8.89551
▁image	-8.89691
▁double	-8.89746
▁follow	-8.90358
▁pin	-8.90449
▁single	-8.90763
▁pour	-8.90766
▁mix	-8.91072
▁clear	-8.91733
▁wind	-8.91734
▁fit	-8.91756
▁money	-8.91792
▁powder	-8.91792
▁release	-8.91792
▁cutting	-8.91837
▁eight	-8.92738
▁measure	-8.92745
▁vehicle	-8.92805
▁plastic	-8.92835
▁started	-8.93366
▁fast	-8.93792
▁exactly	-8.93907
▁completely	-8.93912
▁bird	-8.93925
▁corner	-8.9394
▁later	-8.93958
▁bend	-8.94675
▁muscles	-8.94843
▁ever	-8.94861
▁careful	-8.94896
▁frame	-8.9495
▁child	-8.9495
▁possible	-8.9495
▁slightly	-8.94964
▁forth	-8.95387
▁though	-8.95565
▁spine	-8.95789
▁finger	-8.96121
or	-8.96282
▁g	-8.96716
b	-8.96762
▁smooth	-8.96983
▁night	-8.97107
▁hundred	-8.97113
▁least	-8.97113
▁thumb	-8.97196
▁loop	-8.9722
▁works	-8.97749
▁business	-8.98212
▁starting	-8.98229
▁against	-8.98295
▁begin	-8.98313
it	-8.99234
wx	-8.99349
▁picture	-8.99471
▁smaller	-8.99503
ness	-8.99532
▁guys	-8.99768
▁pop	-8.99775
ers	-8.99967
▁build	-9.00042
▁pay	-9.0046
▁movement	-9.0065
▁school	-9.01583
▁knife	-9.01583
▁nothing	-9.01584
▁slowly	-9.01637
▁matter	-9.01648
▁problem	-9.01801
▁painting	-9.02514
▁deep	-9.02607
▁properly	-9.02812
▁root	-9.02957
▁print	-9.03226
▁c	-9.03445
▁match	-9.03456
th	-9.0377
▁ear	-9.03775
xa	-9.038
▁belt	-9.03901
able	-9.04405
▁wash	-9.04509
▁pair	-9.04657
▁recommend	-9.04855
▁deal	-9.04974
▁01	-9.05109
▁lip	-9.05369
▁sides	-9.05612
▁edges	-9.05681
▁continue	-9.06155
▁perfect	-9.06203
▁man	-9.06219
▁everybody	-9.06262
▁teeth	-9.06263
▁main	-9.06267
▁club	-9.06565
▁pattern	-9.06573
▁wide	-9.07049
▁round	-9.07267
▁slow	-9.07343
▁soft	-9.0739
▁length	-9.07461
▁instead	-9.07467
▁since	-9.07467
▁sitting	-9.07486
▁swing	-9.07514
▁training	-9.07623
▁bar	-9.07752
▁technique	-9.07814
▁un	-9.08124
▁eat	-9.08296
▁enjoy	-9.08673
▁collar	-9.08686
▁mirror	-9.08686
▁twenty	-9.08686
▁local	-9.08686
/01	-9.08687
▁difference	-9.09007
▁motion	-9.09029
▁golf	-9.09587
▁handle	-9.09595
le	-9.09724
▁drink	-9.09872
▁fact	-9.09904
▁found	-9.09917
▁heavy	-9.09921
▁belly	-9.09933
▁p	-9.10226
▁wrist	-9.10297
▁t	-9.10568
▁several	-9.11171
▁camera	-9.11171
▁fall	-9.11231
▁nose	-9.11379
▁form	-9.11585
el	-9.12081
▁takes	-9.12255
▁balance	-9.12314
▁common	-9.12377
▁consider	-9.12421
▁brown	-9.12445
▁customer	-9.12877
▁punch	-9.13274
▁hoop	-9.13311
▁coffee	-9.13719
▁square	-9.13719
▁wet	-9.1434
▁focus	-9.14405
▁garden	-9.14615
▁teach	-9.14914
▁needs	-9.14925
▁normal	-9.14959
▁easily	-9.15017
▁energy	-9.15022
▁however	-9.15032
▁didn	-9.15196
▁blade	-9.15556
▁parts	-9.15692
▁strong	-9.16191
▁flow	-9.16291
▁series	-9.16333
▁figure	-9.16429
bo	-9.1643
▁inches	-9.16513
▁computer	-9.16873
x	-9.17169
▁starts	-9.17231
▁b	-9.17362
an	-9.17559
▁chair	-9.17666
▁wrong	-9.17666
▁rice	-9.1767
▁bike	-9.17688
▁playing	-9.177
▁products	-9.18033
▁group	-9.18271
▁s	-9.18377
▁ring	-9.18438
▁problems	-9.18758
▁information	-9.19018
▁third	-9.19018
▁blanket	-9.19018
▁safety	-9.19019
▁days	-9.19022
▁curl	-9.19068
▁de	-9.19203
▁larger	-9.19598
▁wine	-9.1971
ous	-9.19832
▁professional	-9.20325
▁spot	-9.20325
▁support	-9.20388
▁breath	-9.20393
▁happen	-9.20479
▁areas	-9.20578
▁ice	-9.20733
▁drive	-9.2127
▁garlic	-9.21776
▁spray	-9.21777
▁dur	-9.2215
3-	-9.22189
▁drawing	-9.22855
▁decide	-9.22898
▁toes	-9.23118
▁blood	-9.23185
▁contact	-9.23185
▁attention	-9.23185
▁tire	-9.23923
▁10	-9.23964
ge	-9.24411
▁leaves	-9.24447
▁rub	-9.24613
▁fresh	-9.24614
▁yellow	-9.24614
▁chicken	-9.24614
▁sun	-9.24658
▁post	-9.24664
ter	-9.24897
▁drill	-9.24975
▁kids	-9.24996
▁towel	-9.25376
▁stone	-9.2539
▁demonstrate	-9.25675
▁plants	-9.25915
▁score	-9.26063
▁wrap	-9.26068
▁field	-9.26134
▁cap	-9.26191
▁elbow	-9.26918
▁read	-9.2696
▁hear	-9.27049
▁hours	-9.2723
▁protect	-9.27284
▁actual	-9.27476
▁family	-9.27533
▁hitting	-9.27584
▁tooth	-9.27616
▁higher	-9.27761
▁tools	-9.2794
▁d	-9.28312
▁circle	-9.28436
▁lips	-9.28645
▁heart	-9.28835
▁thin	-9.28878
lnu	-9.29026
▁orange	-9.29026
▁world	-9.29027
▁chocolate	-9.29031
▁layer	-9.29375
ar	-9.29427
▁fat	-9.29598
▁thread	-9.29933
▁seat	-9.29986
▁word	-9.30039
h	-9.30251
▁apart	-9.30536
▁character	-9.30541
▁gently	-9.30541
▁medium	-9.30541
▁yoga	-9.30542
▁opposite	-9.30543
▁quickly	-9.30658
▁oh	-9.30871
▁grow	-9.31025
▁chain	-9.31514
▁shoot	-9.31613
▁heel	-9.31671
04	-9.31771
▁further	-9.32084
▁cold	-9.321
▁foundation	-9.32101
▁upper	-9.32259
▁mark	-9.32451
▁standing	-9.32778
com	-9.33135
▁k	-9.33294
▁thick	-9.33564
▁worry	-9.33644
▁plate	-9.3365
▁tank	-9.33651
▁rid	-9.33778
▁ink	-9.34497
▁flavor	-9.34518
▁serve	-9.34544
▁blend	-9.34547
▁within	-9.34583
▁temperature	-9.347
ur	-9.34852
▁discuss	-9.35023
▁difficult	-9.35111
▁comb	-9.35133
▁above	-9.35234
▁showing	-9.35393
▁art	-9.35496
▁players	-9.35597
ting	-9.35633
▁mat	-9.35686
▁burn	-9.35705
▁rock	-9.35968
▁treat	-9.36131
▁pre	-9.36147
up	-9.36308
▁pushing	-9.36533
▁avoid	-9.3663
▁loose	-9.36718
▁(	-9.36842
▁machine	-9.36842
▁juice	-9.36843
pz	-9.36847
▁anywhere	-9.36854
▁points	-9.37329
ity	-9.37974
▁material	-9.38034
▁live	-9.3804
▁sell	-9.38069
▁year	-9.38075
▁needle	-9.38159
▁wanted	-9.38181
▁entire	-9.38421
▁squeeze	-9.38482
▁waist	-9.38482
▁grip	-9.38495
▁setting	-9.38538
▁harder	-9.38706
▁flowers	-9.38754
ch	-9.39103
u	-9.3925
us	-9.39263
▁15	-9.39566
▁trick	-9.39615
▁knot	-9.39713
▁f	-9.39826
▁cleaning	-9.40052
▁favorite	-9.40148
▁children	-9.40149
▁filter	-9.4015
▁specific	-9.4015
▁lid	-9.4015
▁typically	-9.40165
▁everyone	-9.40176
▁generally	-9.4019
▁rod	-9.40216
▁film	-9.40234
▁faster	-9.40251
ce	-9.40281
xg	-9.40283
▁interesting	-9.40298
nw	-9.40314
▁bone	-9.41541
▁save	-9.41765
▁prevent	-9.41826
▁flip	-9.41834
▁project	-9.41843
▁rather	-9.41844
▁understand	-9.41846
▁battery	-9.41875
▁v	-9.41901
▁bigger	-9.42041
▁soon	-9.42443
▁turning	-9.42852
▁thinking	-9.42858
▁write	-9.43022
▁buying	-9.43236
▁minute	-9.43242
▁similar	-9.43503
▁player	-9.43518
▁bunch	-9.43534
▁basket	-9.43566
▁guitar	-9.43567
▁necessarily	-9.4357
▁20	-9.436
▁yes	-9.43659
."	-9.43778
li	-9.44083
▁party	-9.4439
▁mouth	-9.45321
▁baby	-9.45322
▁hello	-9.45323
▁flash	-9.45323
▁dance	-9.45328
ies	-9.45562
▁core	-9.46023
▁holes	-9.46568
▁cloth	-9.46704
▁purpose	-9.46779
▁flower	-9.46916
▁experience	-9.46971
▁lead	-9.46995
▁music	-9.47112
▁toilet	-9.47118
▁climbing	-9.47197
▁butter	-9.47465
▁words	-9.47772
▁tent	-9.48233
▁rolling	-9.48492
▁team	-9.48502
▁situation	-9.48622
▁degree	-9.48677
▁fair	-9.48923
▁self	-9.48926
▁steel	-9.48928
▁makeup	-9.49263
▁trim	-9.49428
▁thought	-9.49716
wr	-9.49818
▁mask	-9.50082
▁relax	-9.50155
▁personal	-9.50188
▁grind	-9.5026
um	-9.50293
▁cream	-9.50659
▁distance	-9.50777
▁market	-9.50778
▁saw	-9.50787
giving	-9.50789
age	-9.50888
as	-9.51516
▁smoke	-9.5215
▁detail	-9.52241
▁dollars	-9.52277
▁service	-9.5241
▁land	-9.52415
▁sound	-9.52467
▁kinds	-9.52584
▁snow	-9.52658
▁pencil	-9.52664
▁women	-9.52664
▁treatment	-9.52671
▁pen	-9.52695
▁unit	-9.52887
▁gone	-9.52899
▁finished	-9.53036
ry	-9.53484
▁wearing	-9.5373
ia	-9.53865
▁sleep	-9.54178
▁tips	-9.54201
cg	-9.54281
▁band	-9.54358
▁hang	-9.54517
▁earlier	-9.54587
▁return	-9.54587
▁thirty	-9.54587
▁fluid	-9.54588
▁lose	-9.54591
bh	-9.54593
▁beginning	-9.54594
▁seconds	-9.54632
▁salt	-9.5464
▁hat	-9.54806
▁lighter	-9.54897
▁bra	-9.54962
▁steps	-9.55102
▁scissors	-9.55185
▁ones	-9.5543
▁lock	-9.55804
se	-9.55901
▁shoes	-9.55981
▁steam	-9.56077
▁stitch	-9.56107
▁spring	-9.5639
▁per	-9.56402
▁palm	-9.56411
▁strap	-9.56419
▁sharp	-9.56533
▁guide	-9.56542
▁chance	-9.56549
▁stance	-9.56553
▁deck	-9.56558
▁load	-9.5657
▁height	-9.56571
▁photography	-9.56575
▁kite	-9.56668
▁bowl	-9.56732
▁win	-9.56772
▁soil	-9.57323
▁letters	-9.57757
▁correct	-9.5805
▁carry	-9.58182
▁fashion	-9.58336
▁seen	-9.58344
▁window	-9.58483
ha	-9.58508
▁negative	-9.58548
▁raw	-9.58548
▁maintain	-9.58551
▁worth	-9.58552
▁standard	-9.58554
▁suit	-9.58566
▁throughout	-9.58593
▁degrees	-9.58823
▁depends	-9.58829
▁taste	-9.58885
▁wave	-9.59025
▁books	-9.59027
▁co	-9.59269
▁video	-9.59769
▁cook	-9.59927
▁special	-9.5994
▁pack	-9.60165
ical	-9.602
▁ends	-9.6037
▁extend	-9.60389
▁dirt	-9.60475
▁hop	-9.60498
la	-9.60518
▁safe	-9.60528
▁week	-9.6056
zz	-9.6057
▁slip	-9.60579
▁foam	-9.60589
▁instance	-9.60589
▁equipment	-9.6059
▁leather	-9.60605
▁pitcher	-9.6068
▁believe	-9.61036
▁opening	-9.61124
▁jeans	-9.61271
to	-9.61747
il	-9.62274
▁throwing	-9.62511
▁count	-9.62532
▁tension	-9.62604
▁drain	-9.62664
▁smell	-9.62667
▁bucket	-9.62672
▁major	-9.62672
▁dead	-9.62672
▁facing	-9.62672
▁came	-9.62696
▁dish	-9.62698
▁normally	-9.62766
▁force	-9.62834
▁feeling	-9.63129
▁building	-9.63413
▁pro	-9.63837
▁pan	-9.6399
▁phone	-9.64111
▁sign	-9.6439
▁separate	-9.64607
▁shop	-9.64795
▁tennis	-9.648
▁route	-9.648
▁yeah	-9.648
▁partner	-9.64801
▁super	-9.64801
▁tie	-9.64802
▁gray	-9.64838
ought	-9.64845
▁bulb	-9.64858
▁model	-9.64914
▁skills	-9.65512
tu	-9.65608
▁walking	-9.65736
ie	-9.65805
▁friends	-9.6592
▁stores	-9.65993
▁strip	-9.6606
▁learning	-9.66144
▁says	-9.6624
▁hurt	-9.66558
▁travel	-9.66578
is	-9.66607
ping	-9.66634
ish	-9.66654
)	-9.66876
▁adjust	-9.66956
▁race	-9.66974
▁near	-9.66976
▁wonderful	-9.66976
▁city	-9.6699
▁mentioned	-9.67019
▁posture	-9.67027
not	-9.67197
▁feels	-9.6773
▁-	-9.67842
▁plane	-9.68241
at	-9.68362
ul	-9.68384
▁develop	-9.68871
▁boom	-9.69046
▁defense	-9.69196
▁joe	-9.69196
▁texture	-9.69197
▁dust	-9.69198
▁gift	-9.69199
▁range	-9.69202
▁whenever	-9.69226
▁somewhere	-9.69229
▁brake	-9.69341
▁client	-9.69351
▁riding	-9.69759
13	-9.6978
▁nicely	-9.70248
ive	-9.70666
▁dress	-9.70817
▁questions	-9.70956
▁places	-9.71108
▁peel	-9.71129
▁select	-9.71246
▁tuck	-9.71261
▁bed	-9.71313
▁vari	-9.71442
▁electric	-9.71454
▁account	-9.71469
▁fake	-9.71469
▁fix	-9.71469
▁shampoo	-9.71469
▁spread	-9.71469
▁available	-9.71469
▁skirt	-9.7147
qgtjljynm	-9.7147
▁solid	-9.7147
▁story	-9.71473
▁credit	-9.7148
▁stage	-9.7149
▁anyway	-9.71513
gz	-9.71522
▁plan	-9.71569
▁healthy	-9.7157
hn	-9.71576
▁cake	-9.71637
▁muscle	-9.71702
▁relaxed	-9.71713
▁past	-9.71821
▁rinse	-9.71878
▁bent	-9.72087
▁30	-9.72412
ate	-9.72433
▁men	-9.72569
▁j	-9.72731
▁terms	-9.72829
less	-9.73033
line	-9.7311
▁explain	-9.73589
▁general	-9.73744
▁determine	-9.73794
▁guard	-9.73794
▁happy	-9.73794
▁liquid	-9.73794
▁mascara	-9.73794
▁myself	-9.73794
▁rubber	-9.73794
▁transfer	-9.73794
▁chose	-9.73794
▁cheese	-9.73795
rwy	-9.73797
▁portion	-9.73798
▁bid	-9.73859
▁seal	-9.73943
▁option	-9.74016
ym	-9.74075
▁backwards	-9.74171
4-3-	-9.74198
▁based	-9.74393
▁balls	-9.74613
▁tone	-9.75026
▁went	-9.75077
ta	-9.75218
ant	-9.75332
▁beer	-9.75503
▁meet	-9.7577
▁vegetables	-9.75842
▁fly	-9.75859
▁star	-9.76014
▁lifting	-9.76076
▁attack	-9.76106
ez	-9.76138
▁strength	-9.7616
▁taken	-9.76169
▁rain	-9.76175
▁value	-9.76175
▁vodka	-9.76175
▁gear	-9.76175
▁lemon	-9.76175
▁zone	-9.76178
▁bright	-9.7618
▁width	-9.76194
▁click	-9.76217
▁website	-9.76456
▁effect	-9.76472
▁dip	-9.76506
▁vegetable	-9.7651
▁pad	-9.7653
▁cooking	-9.76641
▁thank	-9.76769
▁aren	-9.77274
▁tap	-9.77465
ne	-9.77654
▁handy	-9.77914
pa	-9.78098
▁states	-9.78147
▁lean	-9.78217
▁complete	-9.78465
▁damage	-9.78497
▁blow	-9.78543
▁appropriate	-9.78614
▁coconut	-9.78614
▁creating	-9.78614
▁repair	-9.78614
▁snake	-9.78614
▁variety	-9.78614
▁must	-9.78618
▁winter	-9.78627
▁inner	-9.78627
▁wipe	-9.78667
▁jab	-9.78862
▁method	-9.78931
▁combination	-9.78941
▁tissue	-9.78956
▁screw	-9.78967
▁girl	-9.78997
▁stroke	-9.79004
▁breathe	-9.79004
▁tree	-9.79029
▁date	-9.79034
▁clock	-9.79051
▁elements	-9.79116
▁beat	-9.79529
▁tall	-9.7966
▁br	-9.80163
be	-9.80666
▁secure	-9.80926
▁condition	-9.80979
afy	-9.81052
▁chop	-9.81104
▁aware	-9.81114
▁company	-9.81114
▁dribble	-9.81114
▁guess	-9.81114
▁microwave	-9.81114
▁otherwise	-9.81114
▁sweep	-9.81114
▁themselves	-9.81114
▁cord	-9.81115
▁acid	-9.81117
▁hopefully	-9.81119
▁baseball	-9.81119
▁true	-9.8114
▁early	-9.81241
▁pet	-9.81252
▁environment	-9.81312
▁slice	-9.81351
▁oppos	-9.8153
▁bottle	-9.81552
▁con	-9.81772
▁heels	-9.82006
▁note	-9.82138
▁ideas	-9.82368
94	-9.82701
▁cups	-9.8275
▁dr	-9.82754
cause	-9.82859
▁closer	-9.83169
▁movements	-9.83257
▁state	-9.83267
ment	-9.83508
▁provide	-9.83625
▁perhaps	-9.83678
▁below	-9.83679
▁jewelry	-9.83679
▁moisture	-9.83679
▁bounce	-9.8368
▁fret	-9.83684
▁price	-9.83686
zv	-9.83696
▁rule	-9.83735
".	-9.83868
▁shirt	-9.83888
▁writing	-9.83894
▁pink	-9.83925
ling	-9.83988
▁improv	-9.83988
▁mold	-9.84043
▁shadow	-9.84146
▁age	-9.84189
▁hour	-9.84215
▁dollar	-9.84216
▁learned	-9.84488
▁wing	-9.8472
uc	-9.84832
▁meaning	-9.85066
▁adding	-9.85088
▁breaking	-9.85148
sk	-9.85155
▁pressing	-9.8519
▁upon	-9.8527
▁saying	-9.85421
▁spend	-9.85906
▁affect	-9.8631
▁chord	-9.8631
▁plus	-9.8631
▁purchase	-9.8631
▁tripod	-9.8631
▁court	-9.8631
ozjhe	-9.86311
▁beak	-9.86311
▁trap	-9.86312
▁flour	-9.86312
▁quality	-9.86315
▁sorry	-9.86315
▁unless	-9.86323
▁north	-9.86335
▁stock	-9.8636
▁patient	-9.86361
▁wedding	-9.86443
▁gold	-9.86462
▁american	-9.86663
▁mixed	-9.86823
▁ankle	-9.86865
▁map	-9.86866
▁glove	-9.86897
▁question	-9.86908
▁toward	-9.86923
▁da	-9.86957
▁w	-9.87166
▁watching	-9.87519
directly	-9.87759
one	-9.88048
▁picking	-9.88187
▁ears	-9.884
q	-9.88681
pd	-9.88815
▁lighting	-9.88928
▁rough	-9.88944
▁access	-9.89011
▁florida	-9.89013
▁opponent	-9.89013
▁sink	-9.89013
▁squat	-9.89013
▁shut	-9.89013
▁thousand	-9.89026
▁photographer	-9.89054
▁counter	-9.89151
▁extension	-9.89631
▁strike	-9.89631
▁program	-9.89662
▁covered	-9.897
▁closed	-9.89704
▁cleaner	-9.89742
▁beads	-9.90395
▁tim	-9.90608
te	-9.90913
▁par	-9.91121
ted	-9.91324
▁effective	-9.91736
▁suggest	-9.91773
▁chin	-9.91781
ier	-9.91786
▁flush	-9.9179
▁shake	-9.91791
▁shrimp	-9.91791
▁litter	-9.91792
▁cable	-9.91825
▁essentially	-9.91831
▁clothes	-9.9184
▁cow	-9.91841
▁naturally	-9.92014
▁soda	-9.92308
▁action	-9.92466
ble	-9.92477
▁yard	-9.92504
▁sheet	-9.92513
▁m	-9.92745
▁9	-9.92753
em	-9.92756
▁19	-9.93054
▁wheels	-9.93069
▁ride	-9.93083
▁st	-9.93181
▁spots	-9.93234
side	-9.9363
▁classic	-9.93867
▁wait	-9.94246
▁office	-9.94292
▁master	-9.94448
▁health	-9.94537
▁individual	-9.94586
▁audition	-9.94648
▁built	-9.94648
▁infection	-9.94648
▁road	-9.94648
▁speech	-9.94648
▁supply	-9.94648
▁paddle	-9.9465
▁sky	-9.94659
▁oven	-9.9468
ut	-9.94729
▁hope	-9.94814
▁strings	-9.94832
▁certainly	-9.94849
ary	-9.94887
▁speaking	-9.94942
▁owner	-9.95035
▁pat	-9.95106
▁created	-9.95259
▁sizes	-9.95376
▁container	-9.95446
▁turns	-9.95462
▁shoe	-9.95503
▁creates	-9.95697
▁kinda	-9.95716
▁shower	-9.96142
wu	-9.9629
▁known	-9.96843
▁hey	-9.97387
ac	-9.97496
▁corners	-9.97498
▁plug	-9.97503
▁raise	-9.97526
▁exact	-9.97531
▁firm	-9.97551
▁present	-9.97572
▁curve	-9.97574
▁popular	-9.97579
▁excess	-9.97582
▁expert	-9.97586
▁answer	-9.97589
▁application	-9.97589
▁daily	-9.97589
▁doctor	-9.97589
▁english	-9.97589
▁tractor	-9.97589
▁lamp	-9.97592
▁coverage	-9.97617
▁tighten	-9.97646
bl	-9.97655
ally	-9.97657
▁rat	-9.97664
▁quarter	-9.97667
▁fan	-9.97671
osp	-9.97974
▁keeps	-9.98145
▁mess	-9.98253
▁bones	-9.98261
▁goal	-9.98354
▁breathing	-9.98448
ian	-9.98523
▁foods	-9.99012
▁direct	-9.99043
▁itâ	-9.99667
▁record	-9.99772
▁sew	-10.0007
▁strokes	-10.0014
▁finding	-10.0022
▁options	-10.0027
▁attach	-10.0038
▁pitch	-10.0045
id	-10.0048
ten	-10.0051
▁sweet	-10.0061
▁austin	-10.0062
▁easies	-10.0062
▁fruit	-10.0062
▁increase	-10.0062
▁period	-10.0062
▁spoon	-10.0062
▁target	-10.0062
▁yet	-10.0062
▁search	-10.0062
▁baking	-10.0062
▁swimming	-10.0062
▁scale	-10.0062
▁sense	-10.0062
▁reduce	-10.0062
▁braid	-10.0063
▁specifically	-10.0063
▁metal	-10.0064
▁forget	-10.0064
▁grass	-10.0064
▁defender	-10.0067
▁workout	-10.0068
▁tiny	-10.007
▁straighten	-10.0076
▁interested	-10.0076
▁perfectly	-10.0077
▁forty	-10.0085
▁00	-10.0094
▁lightly	-10.0106
▁medica	-10.0117
▁fla	-10.0141
▁class	-10.0143
▁repeat	-10.0155
▁ingredients	-10.0171
▁mixing	-10.0181
▁abs	-10.0187
▁elbows	-10.0191
▁bubbles	-10.0198
_5	-10.0201
tally	-10.0206
▁likely	-10.0207
he	-10.0229
▁pages	-10.0244
the	-10.0271
na	-10.028
▁added	-10.0282
▁liner	-10.0323
▁listen	-10.0334
▁topic	-10.0335
▁lengthen	-10.0337
▁produce	-10.0343
jab	-10.0344
▁trail	-10.0368
▁prefer	-10.0374
uveqzte	-10.0374
▁fifteen	-10.0374
▁internet	-10.0374
▁possibly	-10.0374
▁queen	-10.0374
▁dancing	-10.0374
▁zoom	-10.0374
▁pliers	-10.0374
mkkk	-10.0375
vmpi	-10.0375
▁immediately	-10.0375
▁dating	-10.0376
▁extremely	-10.0376
▁shell	-10.0378
xv	-10.0381
▁windows	-10.0385
▁choos	-10.0409
▁dealer	-10.0411
pc	-10.0425
▁took	-10.0426
tract	-10.0434
▁non	-10.0453
▁tricks	-10.0454
▁oily	-10.0465
▁pi	-10.0475
op	-10.0478
▁becomes	-10.0479
▁object	-10.0481
▁animal	-10.0483
▁train	-10.0515
▁shapes	-10.0534
▁outfit	-10.0543
▁toss	-10.0556
▁issues	-10.0563
do	-10.0578
▁touching	-10.0584
▁seeing	-10.0603
▁techniques	-10.0604
▁sticks	-10.0637
▁aside	-10.0645
▁shots	-10.0652
▁list	-10.0653
tion	-10.0666
▁prepare	-10.0695
▁moment	-10.0697
▁bacon	-10.0697
▁percent	-10.0697
▁pool	-10.0697
▁twelve	-10.0697
▁previous	-10.0697
▁split	-10.0697
▁kitchen	-10.0697
▁morning	-10.0697
▁laptop	-10.0697
▁ninety	-10.0697
▁neat	-10.0697
▁wand	-10.0698
you	-10.0698
▁1/2	-10.0698
▁studio	-10.0699
▁please	-10.07
▁meat	-10.0708
▁involved	-10.0713
▁attached	-10.0718
ful	-10.072
ver	-10.0726
▁cooked	-10.0729
per	-10.0741
/00	-10.0744
▁13	-10.075
▁aid	-10.0753
▁blocks	-10.0754
pv	-10.0773
▁games	-10.0774
ize	-10.0781
▁sha	-10.0786
▁command	-10.081
▁items	-10.0814
▁ounce	-10.0824
▁act	-10.0862
▁covering	-10.0863
▁late	-10.0923
ma	-10.0956
▁connect	-10.0969
▁boil	-10.0991
▁la	-10.1007
▁birds	-10.102
▁sauce	-10.1029
▁crown	-10.103
▁john	-10.103
▁silver	-10.103
▁trouble	-10.103
▁equal	-10.103
▁interview	-10.103
▁napkin	-10.103
sgrpijksw	-10.103
vlpo	-10.103
▁acne	-10.1031
▁trade	-10.1031
▁lipstick	-10.1031
▁beef	-10.1031
▁spinning	-10.1032
▁town	-10.1032
▁send	-10.1033
▁background	-10.1034
▁advanced	-10.1037
▁leaf	-10.1039
▁thicker	-10.1044
▁deeper	-10.105
▁numbers	-10.1055
▁clothing	-10.1106
▁picked	-10.1149
▁hinge	-10.1157
▁40	-10.1157
▁benefits	-10.1158
▁seems	-10.1181
▁letter	-10.1192
▁moves	-10.1244
▁sea	-10.1247
ine	-10.1314
▁flex	-10.1352
▁soak	-10.1355
▁engine	-10.1358
▁original	-10.137
▁occur	-10.1375
▁absorb	-10.1375
▁accurate	-10.1375
▁afraid	-10.1375
▁although	-10.1375
▁cotton	-10.1375
▁driving	-10.1375
▁eleven	-10.1375
▁nurse	-10.1375
▁pocket	-10.1375
▁public	-10.1375
▁schedule	-10.1375
▁screen	-10.1375
▁soccer	-10.1375
▁stomach	-10.1375
▁texas	-10.1375
▁basis	-10.1375
▁tiger	-10.1375
▁clamp	-10.1375
▁portal	-10.1377
▁absolutely	-10.1377
▁dice	-10.1378
▁sp	-10.1379
▁san	-10.1381
▁protection	-10.1381
▁correctly	-10.1385
▁45	-10.139
▁tongue	-10.1417
▁pants	-10.143
▁onion	-10.1431
▁students	-10.1447
▁term	-10.1473
fe	-10.148
▁printing	-10.1496
▁anti	-10.151
rk	-10.1511
▁brand	-10.1513
▁results	-10.1515
▁circles	-10.1516
▁issue	-10.1521
▁eggs	-10.1523
▁page	-10.1523
ri	-10.1531
ese	-10.1542
▁cute	-10.1549
ped	-10.1557
▁blades	-10.1584
▁stays	-10.1597
▁gloves	-10.1653
▁ga	-10.1694
▁ski	-10.17
▁bow	-10.1701
▁stress	-10.1712
▁180	-10.1732
▁audience	-10.1732
▁budget	-10.1732
▁crab	-10.1732
▁espresso	-10.1732
▁excellent	-10.1732
▁expensive	-10.1732
▁japan	-10.1732
▁location	-10.1732
▁necessary	-10.1732
▁pepper	-10.1732
▁sponge	-10.1732
▁therapy	-10.1732
▁fifty	-10.1732
▁beauty	-10.1732
▁tune	-10.1733
▁stability	-10.1733
▁eventually	-10.1734
▁heavier	-10.1734
▁gain	-10.1734
▁cage	-10.1736
▁dial	-10.1737
▁bacteria	-10.1744
▁24	-10.175
▁dropping	-10.1756
▁beach	-10.1761
▁telling	-10.1766
▁supplies	-10.1768
▁50	-10.1815
▁growing	-10.1827
▁net	-10.1843
▁months	-10.1854
▁dis	-10.1861
hi	-10.1874
▁cost	-10.1887
▁choice	-10.1889
man	-10.1893
▁ju	-10.1911
▁14	-10.1929
▁seam	-10.1942
▁reasons	-10.1954
lo	-10.1992
▁circula	-10.1995
▁sticking	-10.2001
no	-10.2031
▁pads	-10.2052
▁shift	-10.2062
▁stain	-10.2084
▁weights	-10.2084
▁gloss	-10.2091
▁corn	-10.2095
▁bulbs	-10.2097
▁swim	-10.2102
▁crease	-10.2103
▁familiar	-10.2103
▁gentle	-10.2103
▁represent	-10.2103
▁research	-10.2103
▁stuck	-10.2103
▁telescope	-10.2103
▁contrast	-10.2103
▁york	-10.2103
▁foil	-10.2103
▁river	-10.2103
▁fence	-10.2103
▁path	-10.2104
▁ceiling	-10.2105
▁thickness	-10.2106
▁vest	-10.2106
▁fits	-10.2108
▁nine	-10.2112
▁needed	-10.2114
▁stepping	-10.2115
▁heard	-10.2143
and	-10.2143
▁dogs	-10.2163
▁r	-10.2169
▁sub	-10.2177
▁sections	-10.2188
▁shooting	-10.22
▁online	-10.2213
▁rotate	-10.223
▁bigge	-10.2259
▁device	-10.2267
▁trip	-10.2306
▁drip	-10.2312
▁clips	-10.2322
▁finer	-10.2322
▁mo	-10.2397
▁others	-10.2398
▁tear	-10.24
land	-10.2409
▁colored	-10.2423
▁install	-10.2425
_6-	-10.243
▁speak	-10.2433
▁crack	-10.2437
▁improve	-10.2441
shirt	-10.2456
▁clients	-10.246
▁kill	-10.2468
▁final	-10.2483
▁caffeine	-10.2487
▁huge	-10.2487
▁pineapple	-10.2487
▁rhythm	-10.2487
▁changing	-10.2487
▁mixture	-10.2487
▁scrub	-10.2487
▁woman	-10.2487
jucixg	-10.2487
▁concealer	-10.2488
▁gym	-10.249
▁logo	-10.2491
▁structure	-10.2492
▁bath	-10.2498
▁cue	-10.2511
▁lights	-10.2513
▁canvas	-10.2515
▁h	-10.2547
▁spare	-10.2556
▁traveling	-10.2559
un	-10.2559
▁soap	-10.2567
▁rocking	-10.2584
▁directions	-10.2585
▁snap	-10.2591
▁ex	-10.2594
▁materials	-10.2595
ng	-10.2596
▁falling	-10.2612
ock	-10.2643
▁centered	-10.2649
ated	-10.2664
▁mechanic	-10.2669
▁bracelet	-10.267
▁relationship	-10.267
▁friend	-10.2672
▁artist	-10.2672
▁cuts	-10.2673
▁log	-10.2673
▁mistake	-10.2673
mp	-10.2676
ance	-10.2696
▁replace	-10.2728
▁ounces	-10.2738
▁rip	-10.2742
▁jumping	-10.2774
_7-	-10.2796
▁pictures	-10.2833
▁pain	-10.2839
▁feed	-10.2857
▁engage	-10.2874
▁hill	-10.2879
▁essential	-10.2881
▁coach	-10.2884
▁wonder	-10.2887
▁approach	-10.2887
▁creature	-10.2887
▁hardware	-10.2887
▁knob	-10.2887
▁limit	-10.2887
▁permanent	-10.2887
▁pivot	-10.2887
▁sliding	-10.2887
▁street	-10.2887
▁triangle	-10.2887
▁expect	-10.2887
▁grocer	-10.2887
▁hammer	-10.2887
▁narrow	-10.2887
▁magic	-10.2887
▁saddle	-10.2887
▁barrel	-10.2887
▁jacket	-10.2888
▁breed	-10.2888
▁incorporate	-10.2888
▁mid	-10.2888
▁shade	-10.2889
▁country	-10.2889
▁package	-10.2889
▁panel	-10.2889
▁golden	-10.289
▁supposed	-10.289
▁pinch	-10.2891
▁tense	-10.2893
▁lime	-10.2893
▁17	-10.2903
▁anyone	-10.2905
▁18	-10.2907
▁leader	-10.2913
▁raised	-10.2913
▁pins	-10.2913
▁stem	-10.2915
▁darker	-10.2916
▁completed	-10.2916
co	-10.2919
▁curly	-10.2926
▁25	-10.2954
309	-10.2962
▁fully	-10.2963
▁sports	-10.2989
▁handed	-10.2995
▁reading	-10.2998
▁teaching	-10.3013
▁drops	-10.3015
▁washing	-10.3026
▁wider	-10.303
▁indoor	-10.3085
▁catching	-10.3086
▁measurement	-10.3089
▁bead	-10.3094
▁realize	-10.3114
tic	-10.3118
▁shine	-10.3118
▁joint	-10.3129
▁cl	-10.313
cu	-10.3131
_1-	-10.3169
▁kicking	-10.3179
▁patterns	-10.3194
▁pie	-10.3194
ning	-10.3224
▁perform	-10.324
_3-	-10.3244
▁report	-10.328
▁mode	-10.3285
▁contract	-10.3293
▁zip	-10.3304
gakrciky	-10.3304
nwgayaq	-10.3304
▁accent	-10.3304
▁achieve	-10.3304
▁certified	-10.3304
▁challenge	-10.3304
▁compliment	-10.3304
▁imagine	-10.3304
▁leash	-10.3304
▁living	-10.3304
▁plenty	-10.3304
▁pulse	-10.3304
▁thirteen	-10.3304
▁anymore	-10.3304
▁visit	-10.3304
▁photo	-10.3304
▁therefore	-10.3304
▁birthday	-10.3304
▁index	-10.3304
▁bathroom	-10.3304
▁funny	-10.3304
▁lava	-10.3304
▁polish	-10.3304
wsfpwg	-10.3304
xrejw	-10.3304
▁wild	-10.3304
▁french	-10.3304
▁dangerous	-10.3304
▁plain	-10.3304
▁captain	-10.3305
▁momentum	-10.3305
▁cardboard	-10.3305
▁strengthen	-10.3307
▁multiple	-10.3307
▁rear	-10.3309
▁ca	-10.3313
▁waste	-10.3314
▁charm	-10.3323
▁dirty	-10.3328
▁shorter	-10.3335
▁older	-10.3343
▁patch	-10.3354
▁rounded	-10.3374
▁nails	-10.3392
▁allowed	-10.3423
▁rocks	-10.343
▁glaze	-10.3441
_12-	-10.3461
▁boots	-10.3465
ap	-10.3476
ors	-10.3515
▁cell	-10.3524
▁variation	-10.3528
▁placed	-10.3537
▁stretching	-10.3541
▁dig	-10.3555
▁tin	-10.3645
let	-10.3661
▁bags	-10.367
▁interest	-10.3681
▁web	-10.3686
▁mud	-10.3687
▁canoe	-10.3698
▁brew	-10.3701
▁plac	-10.3704
▁war	-10.3729
▁drag	-10.3733
▁function	-10.3734
▁tomato	-10.3736
▁subject	-10.3738
▁liz	-10.3738
▁turtle	-10.3739
▁acrylic	-10.3739
▁forearm	-10.3739
▁frisbee	-10.3739
▁phase	-10.3739
▁potential	-10.3739
▁practicing	-10.3739
▁relative	-10.3739
▁synthetic	-10.3739
▁teapot	-10.3739
▁utiliz	-10.3739
▁olive	-10.3739
▁shelf	-10.3739
▁sick	-10.3739
▁welcome	-10.3739
▁racket	-10.3739
▁urine	-10.3739
▁twice	-10.3739
▁garage	-10.3739
▁paul	-10.3739
▁everyday	-10.374
▁grain	-10.374
▁pores	-10.374
▁everywhere	-10.374
▁flame	-10.374
▁torso	-10.374
▁opportunity	-10.3741
▁mother	-10.3741
▁pump	-10.3741
▁ridge	-10.3742
▁stove	-10.3742
▁reverse	-10.3742
▁gap	-10.3743
▁fiber	-10.3744
▁pipe	-10.3744
▁finally	-10.3746
▁overhead	-10.3746
▁100	-10.3747
_11-	-10.3747
▁damp	-10.3753
▁gotten	-10.3756
▁images	-10.3765
▁quicker	-10.3777
▁continu	-10.3778
▁u	-10.3779
▁di	-10.3788
▁diet	-10.3789
▁sounds	-10.379
▁spades	-10.3792
▁seated	-10.3798
▁rate	-10.3808
▁oils	-10.3811
▁designer	-10.3814
out	-10.3816
da	-10.3835
▁dryer	-10.3841
▁exercises	-10.3851
▁fel	-10.3866
▁beans	-10.3879
▁given	-10.3945
▁tires	-10.3949
▁joints	-10.3966
z	-10.3976
▁bond	-10.3978
▁chemical	-10.3979
▁nut	-10.3993
▁marker	-10.3996
▁cases	-10.4008
▁stir	-10.4032
▁young	-10.4064
hand	-10.4088
ky	-10.413
▁measur	-10.4151
▁prepar	-10.4157
_9-	-10.4159
five	-10.4165
set	-10.4166
▁mount	-10.4172
cro	-10.4172
ga	-10.4175
▁tough	-10.4185
▁slight	-10.4189
▁potato	-10.419
▁except	-10.4192
▁aroma	-10.4193
▁craft	-10.4193
▁david	-10.4193
▁dentist	-10.4193
▁maintenance	-10.4193
▁parallel	-10.4193
▁salmon	-10.4193
▁therapist	-10.4193
▁thermostat	-10.4193
▁volleyball	-10.4193
▁ollie	-10.4193
▁requirements	-10.4193
▁average	-10.4193
▁carpet	-10.4193
▁judge	-10.4193
▁paid	-10.4194
▁basketball	-10.4194
▁fist	-10.4194
▁mine	-10.4194
▁rib	-10.4194
▁insert	-10.4195
▁view	-10.4196
▁study	-10.4197
▁charge	-10.4197
ify	-10.42
▁include	-10.4201
▁boy	-10.4203
▁somewhat	-10.4203
ative	-10.4204
▁horses	-10.4208
▁tube	-10.421
▁traditional	-10.4212
▁bill	-10.4213
▁personally	-10.4214
▁involve	-10.422
▁enter	-10.423
▁rim	-10.4234
▁extended	-10.4238
▁locked	-10.424
over	-10.426
▁flying	-10.4271
▁reps	-10.4273
▁writ	-10.4302
▁90	-10.4304
rl	-10.4338
▁grows	-10.4365
▁bolts	-10.437
▁adult	-10.4375
▁filling	-10.4378
▁sets	-10.4405
▁twisting	-10.4427
_10-	-10.444
▁advantage	-10.4448
▁row	-10.4455
▁bubble	-10.4458
▁cats	-10.4467
▁marti	-10.4494
ld	-10.4531
▁causes	-10.4569
▁bottles	-10.4586
▁spa	-10.4588
▁girls	-10.4595
work	-10.4603
▁th	-10.4611
▁loops	-10.4622
▁season	-10.463
so	-10.4647
▁melt	-10.4649
▁cheap	-10.4662
▁collect	-10.4663
▁horizontal	-10.4663
▁caught	-10.4669
▁crochet	-10.4669
▁deliver	-10.4669
▁desire	-10.4669
▁display	-10.4669
▁experiment	-10.4669
▁flexibility	-10.4669
▁groove	-10.4669
▁honey	-10.4669
▁identify	-10.4669
▁peanut	-10.4669
▁removing	-10.4669
▁sensitive	-10.4669
▁squeezing	-10.4669
▁teaspoon	-10.4669
▁wool	-10.4669
▁chalk	-10.4669
▁spill	-10.4669
▁compost	-10.4669
▁gonna	-10.467
▁pillow	-10.467
▁ensure	-10.467
▁voice	-10.467
▁wrench	-10.467
▁alternative	-10.467
▁south	-10.467
▁version	-10.4671
▁fitted	-10.4672
▁alcohol	-10.4673
▁theme	-10.4675
▁exist	-10.4675
▁soften	-10.4676
▁punches	-10.4681
▁sale	-10.4685
nd	-10.4685
▁boxes	-10.4686
▁loosen	-10.4688
▁shuffle	-10.4691
▁stained	-10.4695
▁conc	-10.4696
▁carefully	-10.4697
▁straps	-10.47
▁useful	-10.4702
▁installing	-10.472
▁chip	-10.4743
▁teacher	-10.4746
▁conditioning	-10.4747
▁changed	-10.4751
▁sticky	-10.4773
▁x	-10.4786
▁arch	-10.48
▁sl	-10.4818
▁arts	-10.4825
▁flavors	-10.4825
▁vers	-10.4827
▁marks	-10.4841
▁requires	-10.4845
▁pounds	-10.4855
▁finishing	-10.4865
_2-	-10.4891
▁variations	-10.4909
▁passing	-10.4941
top	-10.4945
▁cheek	-10.4948
▁female	-10.4949
▁breast	-10.4952
▁stamp	-10.4953
▁egg	-10.4958
ice	-10.4975
▁l	-10.4998
_5-	-10.5001
▁staying	-10.5015
▁gre	-10.5022
▁si	-10.5038
▁conditions	-10.5084
_8-	-10.509
▁fu	-10.5091
▁trees	-10.5095
ow	-10.5112
▁join	-10.5123
▁float	-10.5128
▁brakes	-10.5136
▁physical	-10.5163
▁successful	-10.5164
▁addition	-10.5164
▁advice	-10.5169
▁aggressive	-10.5169
▁aperture	-10.5169
▁applied	-10.5169
▁community	-10.5169
▁companies	-10.5169
▁decision	-10.5169
▁diamond	-10.5169
▁dinner	-10.5169
▁google	-10.5169
▁gossip	-10.5169
▁monologue	-10.5169
▁opinion	-10.5169
▁protein	-10.5169
▁scoop	-10.5169
▁vintage	-10.5169
▁wagon	-10.5169
▁barrier	-10.5169
▁future	-10.5169
▁rescue	-10.5169
▁anchor	-10.517
▁rust	-10.517
▁balloon	-10.517
▁angry	-10.517
▁rectangle	-10.517
▁literally	-10.517
▁realtor	-10.517
▁fear	-10.517
▁russell	-10.517
▁rotation	-10.517
▁education	-10.517
▁trust	-10.517
form	-10.517
▁clap	-10.517
▁straw	-10.5171
sylv	-10.5171
▁detector	-10.5171
▁address	-10.5171
▁connection	-10.5172
▁rise	-10.5173
▁growth	-10.5174
dental	-10.5174
▁earth	-10.5175
▁overall	-10.5176
▁reel	-10.5177
▁china	-10.5177
▁helpful	-10.5179
▁amazing	-10.5179
▁calm	-10.5187
ability	-10.5202
▁particularly	-10.521
▁miles	-10.522
▁worked	-10.5232
30	-10.5246
▁leaning	-10.5253
uches	-10.5284
▁meal	-10.5294
?"	-10.5296
▁bare	-10.5304
ept	-10.5333
▁ba	-10.5341
▁thighs	-10.5342
▁import	-10.5346
ab	-10.5374
▁shown	-10.538
▁painted	-10.5383
▁doll	-10.5409
▁knows	-10.5411
▁lifted	-10.5421
▁choices	-10.5467
5-	-10.5472
▁result	-10.5484
▁kit	-10.5486
▁gi	-10.5493
▁spic	-10.5499
▁roller	-10.5541
kt	-10.5542
▁goals	-10.5548
▁clubs	-10.556
▁bi	-10.5572
....	-10.5582
▁fishing	-10.5584
oh	-10.5594
▁paste	-10.5601
▁lin	-10.563
go	-10.5642
▁receive	-10.5647
▁coarse	-10.5651
▁freeze	-10.5653
▁names	-10.5664
▁features	-10.5683
▁28	-10.5684
▁bump	-10.5689
▁neutral	-10.5695
▁apple	-10.5696
▁bicycle	-10.5696
▁champagne	-10.5696
▁college	-10.5696
▁confident	-10.5696
▁crazy	-10.5696
▁defensive	-10.5696
▁faith	-10.5696
▁instrument	-10.5696
▁insulation	-10.5696
▁ladies	-10.5696
▁pimples	-10.5696
▁squash	-10.5696
▁steady	-10.5696
▁swirl	-10.5696
▁treadmill	-10.5696
▁flick	-10.5696
▁leaving	-10.5696
▁delicious	-10.5696
▁assistant	-10.5696
▁dough	-10.5696
▁dried	-10.5696
▁resistance	-10.5696
▁gina	-10.5696
▁chew	-10.5697
▁constantly	-10.5697
▁rum	-10.5697
▁triple	-10.5697
rpm	-10.5698
▁broken	-10.5698
▁stable	-10.5698
▁code	-10.57
▁fitting	-10.5703
▁binding	-10.5703
▁manufacturer	-10.5705
▁email	-10.5708
▁fal	-10.5709
▁agent	-10.5715
▁aim	-10.5716
▁crank	-10.5717
_4-	-10.5725
▁runs	-10.5736
▁fingertips	-10.5737
▁prepared	-10.5741
▁washer	-10.5743
▁lu	-10.5761
▁16	-10.5763
ries	-10.5791
▁stands	-10.5908
ud	-10.5913
▁ro	-10.5915
_0-	-10.5931
▁kayak	-10.5986
▁file	-10.5987
van	-10.5988
de	-10.5998
ist	-10.5998
▁transition	-10.603
▁restaurant	-10.6032
▁solution	-10.6033
▁sleeve	-10.6034
▁boot	-10.6038
▁pound	-10.6038
▁bolt	-10.6038
▁gel	-10.6039
▁benefit	-10.604
▁flag	-10.6051
▁covers	-10.6055
▁animals	-10.6058
▁falls	-10.6065
▁programs	-10.6117
▁inter	-10.6123
▁gas	-10.6134
▁notch	-10.6136
▁wings	-10.6143
▁clocks	-10.6167
king	-10.6192
▁scratch	-10.6206
ile	-10.6216
weight	-10.6222
▁strips	-10.6224
▁die	-10.6227
ger	-10.6231
▁typical	-10.6246
aot	-10.6246
▁operat	-10.625
▁weak	-10.625
▁resist	-10.6251
▁copy	-10.6251
▁accessories	-10.6251
▁border	-10.6251
▁butterfly	-10.6251
▁california	-10.6251
▁chamber	-10.6251
▁clown	-10.6251
▁communication	-10.6251
▁definition	-10.6251
▁drug	-10.6251
▁grease	-10.6251
▁kiln	-10.6251
▁lazy	-10.6251
▁memory	-10.6251
▁necklace	-10.6251
▁positive	-10.6251
▁procedure	-10.6251
▁purple	-10.6251
▁recipe	-10.6251
▁ribbon	-10.6251
▁scalp	-10.6251
▁session	-10.6251
▁television	-10.6251
▁zero	-10.6251
▁decoration	-10.6251
▁movie	-10.6251
▁offense	-10.6251
▁scent	-10.6251
▁national	-10.6251
▁competition	-10.6251
▁tilt	-10.6251
▁forehand	-10.6251
▁nature	-10.6251
▁robert	-10.6251
cpyjmyak	-10.6251
▁bedroom	-10.6251
yopq	-10.6251
▁garment	-10.6252
▁alone	-10.6252
▁extinguisher	-10.6252
▁organic	-10.6252
▁lost	-10.6252
▁prior	-10.6252
▁rose	-10.6253
▁rich	-10.6253
▁message	-10.6253
▁tile	-10.6253
▁bake	-10.6254
▁behavior	-10.6254
▁encourage	-10.6254
▁history	-10.6255
▁tomatoes	-10.6255
▁mug	-10.6258
▁anytime	-10.6262
▁weeks	-10.6265
▁matches	-10.6267
way	-10.6268
state	-10.6268
▁lesson	-10.6273
ite	-10.6276
).	-10.6277
▁setup	-10.6278
▁candle	-10.6284
▁fighting	-10.6285
▁27	-10.6289
▁pu	-10.629
▁fur	-10.6299
▁demo	-10.6309
▁details	-10.6315
▁evening	-10.6325
▁highly	-10.6332
▁upside	-10.6333
▁recommended	-10.6349
▁removed	-10.6355
▁noticed	-10.6355
ph	-10.6357
ise	-10.6367
▁steaming	-10.6368
ler	-10.6373
▁pointing	-10.6378
▁offer	-10.6397
▁weeds	-10.6401
▁ne	-10.6406
▁bear	-10.6408
▁happening	-10.6418
▁bo	-10.6429
▁eyebrows	-10.6432
▁evenly	-10.6434
▁highlights	-10.6445
▁poles	-10.6446
▁ab	-10.6474
▁notes	-10.6499
▁gun	-10.6512
ard	-10.6568
▁groups	-10.6571
▁taper	-10.6593
▁site	-10.6609
▁require	-10.6613
▁motorcycle	-10.6618
▁mountain	-10.6619
▁cheer	-10.6621
00	-10.6623
▁vitamin	-10.6626
▁ingredient	-10.6628
▁changes	-10.6638
▁kicks	-10.664
▁pee	-10.6654
▁aspect	-10.6671
ized	-10.6685
▁yards	-10.6686
time	-10.6698
▁n	-10.67
▁dece	-10.67
ide	-10.6703
▁effects	-10.6764
▁ri	-10.6777
tive	-10.6786
▁bread	-10.6798
▁steep	-10.6798
▁cur	-10.6799
board	-10.6805
ton	-10.6824
▁les	-10.6825
▁serious	-10.6833
▁sudden	-10.6833
▁visual	-10.6833
▁current	-10.6834
▁batter	-10.6834
▁lens	-10.6837
▁anybody	-10.684
▁decorative	-10.684
▁delete	-10.684
▁depth	-10.684
▁human	-10.684
▁minor	-10.684
▁oxygen	-10.684
▁platform	-10.684
▁razor	-10.684
▁remain	-10.684
▁resume	-10.684
▁stiff	-10.684
▁sunscreen	-10.684
▁taught	-10.684
▁unfortunately	-10.684
▁videographer	-10.684
▁wound	-10.684
▁stroller	-10.684
▁henna	-10.684
▁cabinet	-10.684
▁eliminat	-10.684
▁decorate	-10.684
▁bridge	-10.684
▁laura	-10.684
▁slack	-10.684
▁construction	-10.684
▁weather	-10.684
▁hydrating	-10.684
▁rack	-10.684
▁mood	-10.684
▁max	-10.684
▁calf	-10.684
▁clasp	-10.684
▁trimming	-10.684
▁whip	-10.684
▁planning	-10.6841
▁salon	-10.6841
▁consistency	-10.6841
▁bait	-10.6841
▁property	-10.6841
▁shopping	-10.6841
▁drum	-10.6841
▁gather	-10.6843
▁concerned	-10.685
▁due	-10.6852
▁multi	-10.6866
▁commonly	-10.6868
yes	-10.6868
▁bite	-10.687
kic	-10.6873
▁tan	-10.6883
▁lo	-10.6894
▁tired	-10.6896
we	-10.6903
▁cha	-10.6907
▁boiling	-10.6912
jsu	-10.6929
▁shaped	-10.6937
-5-	-10.6952
▁rob	-10.6958
▁systems	-10.696
▁folded	-10.6961
▁asked	-10.7001
que	-10.7017
▁cars	-10.7022
▁gardening	-10.7028
▁specialize	-10.7032
▁eating	-10.7041
▁item	-10.7046
▁vitamins	-10.7059
▁styles	-10.7065
▁chains	-10.7065
losing	-10.7071
▁shin	-10.7099
ff	-10.7114
▁nuts	-10.7125
▁angles	-10.7133
▁cle	-10.7147
▁mistakes	-10.7166
▁gra	-10.7178
▁22	-10.7189
▁sa	-10.7196
▁wor	-10.7202
▁bottoms	-10.7219
_13-	-10.7232
▁tab	-10.7243
▁coloring	-10.7245
▁month	-10.7246
ach	-10.7248
▁source	-10.7249
▁male	-10.7251
▁thigh	-10.7251
▁highlight	-10.7254
▁jean	-10.7254
▁pole	-10.7262
▁miss	-10.7264
▁told	-10.7273
▁skill	-10.7293
▁roots	-10.734
▁america	-10.738
▁po	-10.7386
▁su	-10.7402
▁park	-10.7413
▁thumbs	-10.7415
▁pri	-10.7418
light	-10.7428
field	-10.7433
off	-10.7442
▁king	-10.7444
▁advance	-10.7452
▁diagonal	-10.7458
▁manual	-10.7458
▁obvious	-10.7459
▁grade	-10.7461
▁bracket	-10.7465
▁cockpit	-10.7465
▁complicated	-10.7465
▁diabetes	-10.7465
▁jeff	-10.7465
▁knock	-10.7465
▁knowledge	-10.7465
▁label	-10.7465
▁leopard	-10.7465
▁lettuce	-10.7465
▁millimeter	-10.7465
▁monitor	-10.7465
▁nutrients	-10.7465
▁perfume	-10.7465
▁secret	-10.7465
▁turkey	-10.7465
▁utah	-10.7465
▁volume	-10.7465
▁warranty	-10.7465
▁creative	-10.7465
▁roast	-10.7465
▁shaft	-10.7465
▁valve	-10.7465
▁lake	-10.7465
▁modern	-10.7465
▁nick	-10.7465
▁suck	-10.7465
▁spider	-10.7465
bson	-10.7465
▁mouthpiece	-10.7465
▁security	-10.7465
▁bobby	-10.7465
▁reference	-10.7465
,000	-10.7465
▁kitty	-10.7465
▁preference	-10.7465
▁quarterback	-10.7465
▁bench	-10.7465
▁pace	-10.7465
▁fancy	-10.7465
▁carbon	-10.7466
▁risk	-10.7466
▁wrapped	-10.7466
▁african	-10.7466
▁guideline	-10.7467
▁collection	-10.7467
▁jar	-10.7468
▁dehydrated	-10.7468
▁lying	-10.7468
▁loss	-10.7469
▁noise	-10.7471
▁gage	-10.7471
▁lunge	-10.7471
▁wig	-10.7474
▁pest	-10.7474
▁plank	-10.7474
▁rag	-10.7477
▁till	-10.7479
▁tried	-10.748
▁law	-10.7482
ung	-10.7487
fw	-10.7488
▁stream	-10.7491
▁1,	-10.7494
▁stronger	-10.7497
▁slower	-10.75
▁arc	-10.75
▁clearly	-10.7502
▁connected	-10.7503
▁tricky	-10.7509
▁wedge	-10.7511
▁brushes	-10.7513
▁eighth	-10.7521
▁eighty	-10.7537
▁components	-10.7542
▁sewing	-10.755
▁mom	-10.7552
▁protected	-10.7553
▁buttons	-10.7553
▁outline	-10.7554
▁ability	-10.7556
rni	-10.7557
▁ruler	-10.757
▁cutters	-10.7571
11	-10.7578
▁beside	-10.7585
▁filled	-10.7593
▁poses	-10.7596
ure	-10.7602
▁landing	-10.7602
kr	-10.7604
▁imp	-10.7608
▁coated	-10.761
▁scar	-10.7621
▁jobs	-10.7622
14	-10.7628
▁cu	-10.764
▁pile	-10.7643
▁mostly	-10.7666
▁compare	-10.7685
ip	-10.7698
▁bur	-10.77
▁proportion	-10.7714
▁following	-10.7722
▁prop	-10.7745
win	-10.7764
▁resting	-10.777
▁chemicals	-10.777
▁cleaned	-10.778
▁cells	-10.7785
▁boards	-10.7797
▁walls	-10.7819
▁le	-10.7853
can	-10.7859
▁maxim	-10.7866
▁eyebrow	-10.7917
/04	-10.7918
▁feature	-10.7919
▁abdominal	-10.7919
▁scissor	-10.7922
▁concentrate	-10.7923
▁hem	-10.7946
▁total	-10.7992
▁drying	-10.7999
ack	-10.8001
▁rules	-10.8005
▁seem	-10.801
tting	-10.8042
▁tub	-10.8065
▁begins	-10.8066
▁mar	-10.8101
▁breaks	-10.8116
▁vertical	-10.8125
▁dimension	-10.8126
▁branch	-10.8128
▁peac	-10.813
▁birth	-10.8131
▁jaw	-10.8131
▁plum	-10.8131
▁association	-10.8131
▁biodiesel	-10.8131
▁bodies	-10.8131
▁brief	-10.8131
▁broccoli	-10.8131
▁bunker	-10.8131
▁category	-10.8131
▁conflict	-10.8131
▁dream	-10.8131
▁dribbling	-10.8131
▁etiquette	-10.8131
▁expand	-10.8131
▁flounder	-10.8131
▁furniture	-10.8131
▁impromptu	-10.8131
▁michelle	-10.8131
▁primarily	-10.8131
▁radio	-10.8131
▁reptile	-10.8131
▁respond	-10.8131
▁reward	-10.8131
▁scoring	-10.8131
▁serving	-10.8131
▁squeegee	-10.8131
▁uniform	-10.8131
▁yoyo	-10.8131
▁lasso	-10.8131
▁scene	-10.8131
▁intensity	-10.8131
▁subtle	-10.8131
▁brayer	-10.8131
▁grabbing	-10.8131
▁sculpture	-10.8131
▁micro	-10.8131
▁muller	-10.8131
▁diameter	-10.8131
▁pizza	-10.8131
▁classroom	-10.8131
▁drew	-10.8131
▁harsh	-10.8131
▁staff	-10.8131
▁mulch	-10.8131
▁resin	-10.8132
▁concept	-10.8132
▁dealership	-10.8132
▁lump	-10.8132
▁lever	-10.8132
▁roping	-10.8132
▁hose	-10.8132
▁dvd	-10.8132
▁flight	-10.8132
▁approximately	-10.8132
▁describe	-10.8132
▁impression	-10.8132
▁hookah	-10.8133
▁fuel	-10.8133
▁wish	-10.8133
▁trophy	-10.8133
▁homework	-10.8135
▁1/4	-10.8135
▁selection	-10.8136
▁moon	-10.8139
▁dull	-10.8139
▁vision	-10.8139
▁carrier	-10.8142
▁controlled	-10.8143
▁trailer	-10.8146
▁deco	-10.8147
▁tv	-10.815
▁37	-10.8156
▁speaker	-10.8157
▁fourth	-10.8159
▁stretches	-10.8162
▁vent	-10.8167
▁easter	-10.8168
▁softer	-10.8169
▁grinder	-10.817
marine	-10.8171
▁none	-10.8173
▁missing	-10.8176
▁bean	-10.819
▁balanced	-10.8211
▁ropes	-10.8213
▁waiting	-10.8228
▁happened	-10.8232
▁event	-10.8233
▁spending	-10.8237
▁sits	-10.8244
▁printed	-10.8251
ho	-10.8259
▁cloves	-10.826
coming	-10.8279
rete	-10.8299
ups	-10.8308
xc	-10.8318
▁fleas	-10.8321
▁32	-10.8338
▁abdominals	-10.8351
▁04	-10.8366
▁wi	-10.8366
▁60	-10.8411
▁casting	-10.8419
▁ago	-10.8425
▁adults	-10.8445
▁drills	-10.8456
▁soup	-10.8495
▁designs	-10.8498
▁trac	-10.8539
▁pointed	-10.8564
▁objects	-10.8599
▁outdoor	-10.8625
_14-	-10.8627
▁sixteen	-10.8632
▁tre	-10.8657
▁ph	-10.8686
▁ankles	-10.8693
▁introduce	-10.8694
▁screws	-10.8741
ence	-10.8744
ons	-10.8745
▁prep	-10.8759
▁media	-10.8771
▁fight	-10.8781
▁sweat	-10.8813
▁rolls	-10.8835
▁reflect	-10.8836
tain	-10.8838
▁dropp	-10.8839
▁efficient	-10.8839
▁quiet	-10.8839
▁consistent	-10.8841
▁athlet	-10.8842
ancy	-10.8845
▁minu	-10.8845
▁wake	-10.8845
▁surf	-10.8845
▁summer	-10.8845
▁pearl	-10.8846
▁activities	-10.8846
▁asparagus	-10.8846
▁clockwise	-10.8846
▁clump	-10.8846
▁compass	-10.8846
▁dialogue	-10.8846
▁dynamic	-10.8846
▁elastic	-10.8846
▁essay	-10.8846
▁gecko	-10.8846
▁knives	-10.8846
▁motocross	-10.8846
▁perception	-10.8846
▁residue	-10.8846
▁ruin	-10.8846
▁sake	-10.8846
▁sensitivity	-10.8846
▁shredde	-10.8846
▁smash	-10.8846
▁stewart	-10.8846
▁thermometer	-10.8846
▁volcano	-10.8846
▁downward	-10.8846
▁ease	-10.8846
▁parsley	-10.8846
▁tread	-10.8846
▁critical	-10.8846
▁strange	-10.8846
▁enemy	-10.8846
▁vase	-10.8846
▁tug	-10.8846
▁roof	-10.8846
▁hobson	-10.8846
▁puff	-10.8846
ency	-10.8846
▁flute	-10.8846
▁cuff	-10.8846
▁recover	-10.8846
▁species	-10.8846
▁automatically	-10.8846
▁flexible	-10.8846
▁tack	-10.8846
▁sparkling	-10.8846
▁demonstration	-10.8846
▁reaction	-10.8846
▁batteries	-10.8847
▁confidence	-10.8847
▁cork	-10.8847
▁bevel	-10.8847
▁retain	-10.8847
▁vary	-10.8848
▁operation	-10.8848
▁feather	-10.8849
▁located	-10.885
ities	-10.885
▁torch	-10.8851
▁bass	-10.8852
▁born	-10.8852
▁worse	-10.8854
▁crawl	-10.8854
▁lust	-10.8854
▁dragon	-10.8856
▁lie	-10.8856
▁thinner	-10.8857
teri	-10.8862
▁pong	-10.8864
berry	-10.8865
▁tailor	-10.8866
▁48	-10.8868
▁harm	-10.8875
▁sweater	-10.8878
▁lat	-10.888
▁forms	-10.8886
▁boomer	-10.8895
▁whiten	-10.8897
rie	-10.8898
ious	-10.8905
▁sling	-10.8909
▁ste	-10.8922
▁boats	-10.8936
▁marked	-10.8942
▁ob	-10.8949
▁disc	-10.8953
▁timing	-10.8954
▁mr	-10.896
hu	-10.896
▁focused	-10.8961
▁washed	-10.8973
try	-10.8974
/4	-10.8992
▁adapti	-10.8995
▁carrying	-10.8996
▁masking	-10.9008
▁cookies	-10.902
▁boas	-10.9022
▁knots	-10.9042
▁basics	-10.9057
▁bloom	-10.9069
ey	-10.9081
▁temperatures	-10.9094
▁sources	-10.9099
▁events	-10.9116
▁bending	-10.913
▁choke	-10.9135
icle	-10.9159
dn	-10.9221
▁rings	-10.9276
▁shed	-10.9298
▁rec	-10.931
▁lined	-10.9311
▁levels	-10.9358
▁chi	-10.9374
▁wrists	-10.9376
▁sample	-10.9393
▁costume	-10.9396
▁terminal	-10.9398
▁flea	-10.9399
▁clipper	-10.9402
▁fa	-10.9409
▁11	-10.941
▁kid	-10.9417
▁prints	-10.9471
▁houses	-10.949
▁scrap	-10.9495
▁stars	-10.9524
▁refer	-10.9538
▁climb	-10.9556
▁mini	-10.9561
back	-10.9581
stream	-10.9583
ship	-10.9583
hey	-10.9588
▁quart	-10.96
▁trans	-10.9605
▁contain	-10.9608
oky	-10.961
▁afterwards	-10.9615
▁bullet	-10.9615
▁calendar	-10.9615
▁campfire	-10.9615
▁challenging	-10.9615
▁church	-10.9615
▁conversation	-10.9615
▁cowboy	-10.9615
▁crisp	-10.9615
▁drywall	-10.9615
▁error	-10.9615
▁frequently	-10.9615
▁gipson	-10.9615
▁impact	-10.9615
▁inexpensive	-10.9615
▁injury	-10.9615
▁international	-10.9615
▁knew	-10.9615
▁mcgehee	-10.9615
▁medicine	-10.9615
▁paddling	-10.9615
▁pendulum	-10.9615
▁perpendicular	-10.9615
▁profile	-10.9615
▁puppy	-10.9615
▁releasing	-10.9615
▁render	-10.9615
▁tattoo	-10.9615
▁telephone	-10.9615
▁valley	-10.9615
▁commercial	-10.9615
▁content	-10.9615
▁leak	-10.9615
▁register	-10.9615
▁symbol	-10.9615
▁chisel	-10.9615
▁dedicate	-10.9615
▁herbal	-10.9615
▁humor	-10.9615
▁rubbing	-10.9615
▁lady	-10.9615
▁unique	-10.9615
▁hollywood	-10.9615
▁pedal	-10.9615
▁cycle	-10.9615
▁facial	-10.9615
▁grout	-10.9615
▁crew	-10.9615
▁barbie	-10.9615
▁swamp	-10.9615
▁stationary	-10.9615
▁splash	-10.9615
▁discover	-10.9615
▁sideways	-10.9615
▁household	-10.9615
▁cheat	-10.9615
▁task	-10.9615
▁income	-10.9615
▁settle	-10.9616
▁harness	-10.9616
▁password	-10.9616
▁review	-10.9616
▁laid	-10.9616
▁closing	-10.9616
▁uh	-10.9616
▁statement	-10.9616
▁adjustment	-10.9617
▁fourteen	-10.9617
▁apartment	-10.9618
▁confused	-10.962
▁solder	-10.962
▁torque	-10.9621
▁durable	-10.9622
▁vel	-10.9622
▁lucky	-10.9623
▁disease	-10.9623
▁fitness	-10.9625
▁hide	-10.9626
▁stripes	-10.9626
▁success	-10.9628
▁ha	-10.9628
▁shiny	-10.963
▁bu	-10.963
▁hardness	-10.9636
ium	-10.9643
▁passes	-10.965
▁sharpening	-10.9652
▁deeply	-10.9656
▁installed	-10.9656
▁damaged	-10.9664
▁lining	-10.9675
▁hamstrings	-10.9676
▁freezer	-10.9678
▁cone	-10.9692
▁lastly	-10.9703
▁ace	-10.971
▁blended	-10.9717
▁disks	-10.9729
▁0	-10.9732
▁parents	-10.9733
▁nap	-10.9738
▁sting	-10.974
▁12	-10.9746
▁measured	-10.9752
▁def	-10.9754
ja	-10.9768
ible	-10.977
ah	-10.9773
▁42	-10.9793
▁trainers	-10.9804
ial	-10.981
▁couch	-10.9828
▁lives	-10.9832
▁terminals	-10.9836
▁seeds	-10.9838
▁passed	-10.9839
▁culture	-10.9848
zing	-10.985
▁bee	-10.9852
▁ke	-10.9857
▁trace	-10.9857
▁hooping	-10.9871
▁coats	-10.9892
▁bri	-10.9896
▁threads	-10.994
▁sta	-10.9964
ty	-10.9975
▁stones	-11.0003
▁tri	-11.0011
▁warming	-11.0015
▁played	-11.0045
▁todd	-11.0054
_15-	-11.007
▁seams	-11.0089
if	-11.0094
▁active	-11.0098
▁computers	-11.0101
▁customers	-11.0156
head	-11.0179
long	-11.0209
▁motions	-11.021
▁looked	-11.022
▁sport	-11.0236
▁extensions	-11.0254
▁strikes	-11.0254
▁skip	-11.0255
▁vo	-11.0286
▁tissues	-11.0329
▁websites	-11.0347
▁farm	-11.0363
▁75	-11.037
by	-11.0372
▁z	-11.0373
▁cakes	-11.0385
▁tra	-11.0392
▁east	-11.0402
▁com	-11.0405
▁concentrat	-11.0407
▁mass	-11.0407
▁sharpen	-11.0416
demo	-11.0416
▁alternat	-11.0421
▁align	-11.0426
▁stack	-11.0428
▁defend	-11.0435
▁lighten	-11.0439
▁jan	-11.044
cal	-11.0443
▁peach	-11.0446
▁snug	-11.0446
well	-11.0447
▁thai	-11.0448
▁stro	-11.0448
▁text	-11.0448
▁blank	-11.0448
▁destroy	-11.0448
▁fellow	-11.0448
smith	-11.0448
▁activity	-11.0448
▁anthony	-11.0448
▁bartender	-11.0448
▁cabbage	-11.0448
▁celery	-11.0448
▁ceramic	-11.0448
▁christmas	-11.0448
▁consult	-11.0448
▁copper	-11.0448
▁debris	-11.0448
▁department	-11.0448
▁disappear	-11.0448
▁duck	-11.0448
▁empty	-11.0448
▁enclosure	-11.0448
▁excuse	-11.0448
▁external	-11.0448
▁flies	-11.0448
▁guarantee	-11.0448
▁handspring	-11.0448
▁hypnosis	-11.0448
▁impossible	-11.0448
▁industry	-11.0448
▁insomnia	-11.0448
▁intake	-11.0448
▁jersey	-11.0448
▁melissa	-11.0448
▁microsoft	-11.0448
▁mild	-11.0448
▁nobody	-11.0448
▁ourselves	-11.0448
▁parsons	-11.0448
▁peroxide	-11.0448
▁purse	-11.0448
▁realistic	-11.0448
▁response	-11.0448
▁ribcage	-11.0448
▁salad	-11.0448
▁sketch	-11.0448
▁spiral	-11.0448
▁sturdy	-11.0448
▁sundae	-11.0448
▁trigger	-11.0448
▁umbrella	-11.0448
▁underwear	-11.0448
▁valuable	-11.0448
▁racing	-11.0448
▁crop	-11.0448
▁zebra	-11.0448
▁organization	-11.0448
▁infant	-11.0448
▁manner	-11.0448
▁marriage	-11.0448
▁weapon	-11.0448
▁skateboard	-11.0448
▁exposure	-11.0448
▁strand	-11.0448
▁ocd	-11.0448
▁busy	-11.0448
▁mouse	-11.0448
▁runner	-11.0449
▁lizard	-11.0449
▁fail	-11.0449
▁wife	-11.0449
▁antique	-11.0449
▁native	-11.0449
▁shaking	-11.0449
▁whoever	-11.045
▁smells	-11.045
▁seventy	-11.045
▁saturated	-11.0451
▁football	-11.0451
ood	-11.0451
▁technically	-11.0451
▁kiss	-11.0452
▁wrapping	-11.0452
▁dries	-11.0453
▁survive	-11.0453
▁potatoes	-11.0454
▁boss	-11.0455
▁graduat	-11.0455
▁classes	-11.0457
▁hood	-11.0461
▁vet	-11.0465
▁placement	-11.0467
▁sewn	-11.047
▁shore	-11.0474
▁hits	-11.0475
▁symptoms	-11.0477
▁38	-11.0484
▁developer	-11.0493
▁rent	-11.0505
▁conditioner	-11.0505
▁career	-11.051
▁springs	-11.0517
▁tied	-11.0521
▁developed	-11.0527
▁receiver	-11.0531
▁latch	-11.0531
▁ticks	-11.0535
▁cd	-11.0551
▁26	-11.0556
vas	-11.0572
▁pure	-11.0576
▁hol	-11.0577
▁ken	-11.0578
▁journals	-11.0592
▁situations	-11.0593
▁meeting	-11.0598
▁loved	-11.0607
▁purposes	-11.0612
▁lob	-11.0616
lates	-11.0644
▁members	-11.0651
▁ta	-11.0652
vd	-11.0681
▁3,	-11.0696
▁planted	-11.07
▁mall	-11.0706
▁driver	-11.0718
▁seed	-11.0722
▁adds	-11.0729
▁drinking	-11.0737
▁kings	-11.075
▁aspects	-11.0769
▁sleeves	-11.0788
met	-11.0794
▁ann	-11.0801
▁pushed	-11.0817
▁assemble	-11.0821
▁holder	-11.0827
▁tag	-11.0844
▁boxing	-11.0845
▁markers	-11.0874
▁designing	-11.0881
▁heating	-11.0882
▁drawer	-11.0889
▁sc	-11.0891
▁exfoliate	-11.0892
▁wires	-11.0894
▁measurements	-11.0906
▁relationships	-11.0926
dic	-11.0934
▁wines	-11.0955
▁pa	-11.0967
▁legal	-11.0986
qu	-11.1016
▁doors	-11.104
▁meant	-11.1045
▁shows	-11.1049
ee	-11.1084
▁drinks	-11.1087
gh	-11.1087
stick	-11.1088
▁minim	-11.1088
tz	-11.1089
▁massag	-11.109
inch	-11.1099
▁bars	-11.1108
▁containers	-11.1108
▁exam	-11.1109
▁hal	-11.1111
use	-11.1115
col	-11.1127
▁sheets	-11.1127
▁boa	-11.1128
▁shark	-11.1136
nia	-11.1139
▁member	-11.114
▁spark	-11.1142
▁cookie	-11.1144
▁factor	-11.1146
▁bug	-11.1152
▁trainer	-11.1161
▁segments	-11.1179
▁molds	-11.1181
▁pit	-11.1211
rian	-11.1245
▁vi	-11.1256
for	-11.1274
▁photograph	-11.1288
▁includ	-11.1292
wood	-11.1323
slide	-11.1325
bacteria	-11.1326
▁ti	-11.1327
three	-11.1328
▁chris	-11.1332
▁mention	-11.1339
▁matt	-11.1342
▁nin	-11.1343
four	-11.1346
▁ap	-11.1347
▁fra	-11.1347
▁internal	-11.1351
▁progress	-11.1355
▁accept	-11.1356
▁comfort	-11.1356
▁stan	-11.1356
▁danger	-11.1356
▁effort	-11.1357
▁impress	-11.1357
▁dramatic	-11.1357
▁automatic	-11.1357
▁rug	-11.1357
▁criss	-11.1357
▁antifreeze	-11.1357
▁april	-11.1357
▁author	-11.1357
▁bailey	-11.1357
▁beyond	-11.1357
▁caliper	-11.1357
▁carolina	-11.1357
▁cocktail	-11.1357
▁connoisseur	-11.1357
▁contour	-11.1357
▁detergent	-11.1357
▁dinosaur	-11.1357
▁dumbbell	-11.1357
▁elderly	-11.1357
▁europe	-11.1357
▁fabulous	-11.1357
▁fatigue	-11.1357
▁fifth	-11.1357
▁glitter	-11.1357
▁gravity	-11.1357
▁initiate	-11.1357
▁jail	-11.1357
▁liquor	-11.1357
▁miami	-11.1357
▁nervous	-11.1357
▁nitrogen	-11.1357
▁peak	-11.1357
▁practitioner	-11.1357
▁pretend	-11.1357
▁purchasing	-11.1357
▁random	-11.1357
▁routine	-11.1357
▁sequence	-11.1357
▁shield	-11.1357
▁shrug	-11.1357
▁truck	-11.1357
▁tumbling	-11.1357
▁unicycle	-11.1357
▁vanveen	-11.1357
▁versatile	-11.1357
▁visible	-11.1357
▁blush	-11.1357
▁gallon	-11.1357
▁housing	-11.1357
▁martini	-11.1357
▁pronounced	-11.1357
▁title	-11.1357
▁grid	-11.1357
▁linebacker	-11.1357
▁newspaper	-11.1357
▁recreation	-11.1357
▁swiss	-11.1357
▁720	-11.1357
▁backswing	-11.1357
▁conservative	-11.1357
▁coral	-11.1357
▁respect	-11.1357
▁semi	-11.1357
▁bash	-11.1357
characteristic	-11.1357
▁beginner	-11.1357
▁axle	-11.1357
▁pause	-11.1357
▁eggplant	-11.1357
▁odd	-11.1357
▁allergi	-11.1357
▁southern	-11.1357
▁occasionally	-11.1357
▁introduction	-11.1357
▁penalt	-11.1358
ficial	-11.1358
▁lack	-11.1358
▁solutionz	-11.1358
▁chef	-11.1358
▁ledge	-11.1358
▁nearby	-11.1358
▁million	-11.1358
▁circulation	-11.1358
▁earring	-11.1359
▁tackle	-11.1359
▁campus	-11.136
▁solve	-11.136
▁sixty	-11.1361
▁mad	-11.1363
▁rarely	-11.1363
▁coolant	-11.1363
▁worms	-11.1364
▁peg	-11.1364
▁dean	-11.1365
itas	-11.1365
▁flatten	-11.1366
▁dew	-11.1367
▁recommendation	-11.137
▁tray	-11.1371
▁hale	-11.1371
▁originally	-11.1374
▁required	-11.1379
▁moisturizer	-11.138
▁vehicles	-11.1384
▁safely	-11.1385
▁toenails	-11.1389
▁arti	-11.139
▁convenient	-11.1391
▁digital	-11.1392
▁production	-11.1392
▁inspect	-11.1393
▁agree	-11.1394
ight	-11.1396
▁ship	-11.1396
▁blender	-11.1398
▁shooter	-11.1399
▁strongly	-11.1401
▁vir	-11.1401
▁presses	-11.1402
▁renting	-11.1402
▁carp	-11.1407
▁crawling	-11.141
▁folks	-11.141
▁resources	-11.141
end	-11.1411
▁flo	-11.1417
▁cleanser	-11.1418
▁parking	-11.1419
▁trained	-11.1421
▁palms	-11.1423
▁tender	-11.1426
▁cracker	-11.1427
▁attract	-11.1428
▁glasses	-11.143
▁pelvis	-11.1431
▁videos	-11.1437
ley	-11.1439
▁filet	-11.144
▁hats	-11.1446
▁porc	-11.1447
▁magazines	-11.1452
▁signs	-11.1459
▁29	-11.1467
▁closely	-11.1469
▁wrinkles	-11.1474
▁scrape	-11.1502
▁officer	-11.1502
wm	-11.1512
▁blowing	-11.1515
▁guests	-11.1516
▁socks	-11.1536
▁upwards	-11.1537
▁teams	-11.1541
▁locking	-11.1556
▁sleeping	-11.156
▁relaxing	-11.1568
▁123	-11.157
▁bugs	-11.158
like	-11.1598
▁burning	-11.1602
▁caused	-11.1607
▁perm	-11.162
tip	-11.1626
▁circu	-11.1632
▁focusing	-11.1661
▁treats	-11.167
atic	-11.1688
▁serves	-11.169
▁sus	-11.1698
▁solutions	-11.1731
▁gels	-11.1731
▁kits	-11.1754
▁mu	-11.177
▁stamps	-11.1772
▁breasts	-11.1775
▁rows	-11.1796
▁matte	-11.1815
▁towels	-11.1818
men	-11.1819
▁sing	-11.1829
▁2,	-11.1838
▁cru	-11.1843
oc	-11.1844
▁forest	-11.185
▁bracelets	-11.1884
mes	-11.1889
▁fil	-11.1891
▁nor	-11.192
▁fin	-11.1934
▁onions	-11.1978
▁ma	-11.1995
▁compar	-11.2008
ram	-11.201
▁ended	-11.2026
▁sw	-11.2038
▁records	-11.204
▁teas	-11.2101
mail	-11.2105
ern	-11.2108
▁skim	-11.2132
▁crystal	-11.2135
▁festival	-11.2138
▁expression	-11.2139
▁tangle	-11.2143
▁maps	-11.2144
▁student	-11.2145
▁element	-11.2146
uring	-11.2166
▁keeper	-11.2191
▁combinations	-11.2219
ba	-11.2221
iness	-11.223
ban	-11.224
terior	-11.2245
▁positions	-11.2283
lain	-11.2291
4-4_2	-11.2298
what	-11.2304
bone	-11.2311
▁rais	-11.2313
▁staple	-11.2314
▁raft	-11.2315
▁frost	-11.2316
▁bleed	-11.2316
▁pinn	-11.2318
▁manage	-11.2322
▁postures	-11.2333
▁establish	-11.2336
▁license	-11.2343
▁combine	-11.2346
▁surprise	-11.2347
▁rare	-11.2351
▁extreme	-11.2353
ola	-11.2355
▁compress	-11.2355
▁implement	-11.2355
▁yo	-11.2356
▁afford	-11.2356
▁overlap	-11.2356
▁habit	-11.2357
▁blot	-11.2357
_17-	-11.2357
▁certificat	-11.2357
]	-11.2357
▁accident	-11.2357
▁accuracy	-11.2357
▁afro	-11.2357
▁afternoon	-11.2357
▁airplane	-11.2357
▁bleach	-11.2357
▁cactus	-11.2357
▁casserole	-11.2357
▁climate	-11.2357
▁communicate	-11.2357
▁compartment	-11.2357
▁crash	-11.2357
▁daniel	-11.2357
▁emotion	-11.2357
▁exciting	-11.2357
▁flesh	-11.2357
▁frizz	-11.2357
▁glow	-11.2357
▁himself	-11.2357
▁hormone	-11.2357
▁husband	-11.2357
▁incredibl	-11.2357
▁injuries	-11.2357
▁insect	-11.2357
▁johanna	-11.2357
▁klein	-11.2357
▁landscape	-11.2357
▁league	-11.2357
▁monkey	-11.2357
▁mortgage	-11.2357
▁nunchuck	-11.2357
▁ocean	-11.2357
▁private	-11.2357
▁shimmy	-11.2357
▁silent	-11.2357
▁skull	-11.2357
▁storage	-11.2357
▁toothbrush	-11.2357
▁uncomfortable	-11.2357
▁upgrade	-11.2357
▁varieties	-11.2357
▁vendors	-11.2357
▁yank	-11.2357
▁document	-11.2357
▁grill	-11.2357
▁honest	-11.2357
▁ratio	-11.2357
▁significant	-11.2357
▁crush	-11.2357
▁eighteen	-11.2357
▁serpentine	-11.2357
▁stunt	-11.2357
▁inhaling	-11.2357
▁politic	-11.2357
▁creme	-11.2357
▁socket	-11.2357
▁primer	-11.2357
▁silk	-11.2357
▁fakie	-11.2357
▁glute	-11.2357
▁recognize	-11.2357
▁oak	-11.2357
▁psychologist	-11.2357
▁injure	-11.2357
▁bound	-11.2357
▁lunch	-11.2357
▁dump	-11.2357
▁italian	-11.2357
▁appearance	-11.2357
▁cardio	-11.2358
shock	-11.2358
▁pork	-11.2358
▁slap	-11.2358
▁performance	-11.2358
fault	-11.2358
▁fever	-11.2358
_18-	-11.2358
▁sex	-11.2358
▁article	-11.2359
▁chopped	-11.2359
▁frozen	-11.2359
▁herbs	-11.2359
▁mature	-11.2359
▁mural	-11.2359
▁zop	-11.236
▁photographic	-11.236
▁potty	-11.236
▁crust	-11.236
▁scroll	-11.236
▁vine	-11.2361
▁icon	-11.2361
▁grit	-11.2361
▁geography	-11.2362
▁immune	-11.2362
▁powerful	-11.2362
▁fry	-11.2362
▁personality	-11.2362
▁science	-11.2362
▁loud	-11.2363
▁fade	-11.2363
▁halfway	-11.2364
▁coin	-11.2366
▁stopping	-11.2366
▁competitive	-11.2366
▁brain	-11.2366
▁theater	-11.2366
▁footwork	-11.2368
▁parker	-11.2368
▁consideration	-11.237
lash	-11.2371
▁hay	-11.2372
▁poker	-11.2373
▁camel	-11.2373
▁q	-11.2374
▁counts	-11.2375
▁70	-11.238
▁bronzer	-11.2382
▁securely	-11.2383
▁73	-11.2389
▁alternate	-11.2389
▁hanger	-11.2394
▁independent	-11.2394
▁entirely	-11.2396
▁bleeding	-11.2399
▁stimulate	-11.2399
qui	-11.2401
▁moist	-11.2406
▁studie	-11.2413
▁smoothly	-11.2416
▁lungs	-11.2416
▁trib	-11.2417
▁voc	-11.2417
▁wiggl	-11.2417
▁polic	-11.2422
▁creamy	-11.2424
▁steeping	-11.2429
▁brad	-11.2435
▁difficulty	-11.2435
▁parrots	-11.2439
▁canal	-11.2444
▁tighter	-11.2448
▁explained	-11.2449
▁brewing	-11.2455
▁referr	-11.2459
▁actors	-11.2464
▁feeding	-11.2464
▁fuller	-11.2471
▁shifting	-11.2473
kin	-11.248
▁indicates	-11.2485
▁mixer	-11.2485
▁connecting	-11.2486
▁gums	-11.2486
▁treated	-11.2492
ches	-11.2499
▁rating	-11.2503
▁mail	-11.2504
▁masks	-11.2523
▁stat	-11.2523
▁sold	-11.2543
▁concerns	-11.2558
ied	-11.2562
▁decid	-11.2573
▁expressions	-11.2581
▁cleans	-11.2588
ift	-11.2589
▁grinding	-11.2592
▁sparks	-11.2601
▁buyer	-11.2623
▁blending	-11.2633
▁marking	-11.2639
▁hero	-11.2646
▁costumes	-11.2653
▁zo	-11.2656
▁burnt	-11.2689
▁sum	-11.2697
▁ki	-11.2698
▁dots	-11.2711
▁heal	-11.2715
▁touched	-11.2718
▁stirr	-11.2733
dle	-11.2739
▁spice	-11.276
ngling	-11.2762
▁restaurants	-11.2773
▁seats	-11.2791
▁testing	-11.2797
▁blocking	-11.2818
▁hearts	-11.2826
▁col	-11.2833
▁differently	-11.286
▁indoors	-11.2919
▁pointer	-11.292
▁stuffing	-11.2926
▁needles	-11.2929
▁mechanics	-11.2944
▁breaths	-11.2955
▁toys	-11.2963
▁planting	-11.2984
▁west	-11.3041
▁hinges	-11.3043
▁wok	-11.305
▁sole	-11.3052
▁acts	-11.3066
bit	-11.3093
▁95	-11.31
▁irons	-11.3108
▁rats	-11.3148
5%	-11.3156
▁cleanse	-11.3163
▁differences	-11.3166
▁ben	-11.3182
▁200	-11.3214
▁concern	-11.3229
▁upward	-11.325
▁fe	-11.3252
▁pon	-11.3253
▁clove	-11.3253
▁tactic	-11.3266
▁shadows	-11.3268
orn	-11.3277
▁sock	-11.3282
▁slices	-11.3295
▁blows	-11.331
▁methods	-11.3319
allow	-11.3324
▁na	-11.3328
▁dec	-11.3343
▁thanks	-11.3345
▁port	-11.3378
▁ver	-11.3407
▁scream	-11.3427
▁complet	-11.3428
▁80	-11.3432
came	-11.3437
while	-11.3437
mark	-11.3439
ister	-11.3441
via	-11.3443
clock	-11.3446
eight	-11.3449
▁comic	-11.3451
▁tru	-11.3453
▁plea	-11.3454
▁thorough	-11.3462
▁sail	-11.3464
▁trop	-11.3466
▁educat	-11.3467
▁appear	-11.3468
▁consist	-11.3468
▁neighbor	-11.3468
▁egypt	-11.3468
▁granula	-11.3468
▁maneuver	-11.3468
▁snack	-11.3468
▁abscess	-11.3468
▁algae	-11.3468
▁almond	-11.3468
▁associated	-11.3468
▁awesome	-11.3468
▁banana	-11.3468
▁beneficial	-11.3468
▁bladder	-11.3468
▁blah	-11.3468
▁bouncing	-11.3468
▁burrow	-11.3468
▁comfortably	-11.3468
▁compete	-11.3468
▁crevices	-11.3468
▁delicate	-11.3468
▁depot	-11.3468
▁diaper	-11.3468
▁distraction	-11.3468
▁divide	-11.3468
▁eaves	-11.3468
▁elegant	-11.3468
▁emergency	-11.3468
▁enforcement	-11.3468
▁execute	-11.3468
▁fingernail	-11.3468
▁friday	-11.3468
▁frog	-11.3468
▁fundamental	-11.3468
▁gauge	-11.3468
▁gradually	-11.3468
▁hazard	-11.3468
▁headshot	-11.3468
▁hollow	-11.3468
▁infected	-11.3468
▁instructor	-11.3468
▁language	-11.3468
▁mechanism	-11.3468
▁myrick	-11.3468
▁nowadays	-11.3468
▁nylon	-11.3468
▁papaya	-11.3468
▁patricia	-11.3468
▁phobia	-11.3468
▁physician	-11.3468
▁precise	-11.3468
▁refrigerator	-11.3468
▁repetition	-11.3468
▁squad	-11.3468
▁surgery	-11.3468
▁syndrome	-11.3468
▁tablespoon	-11.3468
▁university	-11.3468
▁vanilla	-11.3468
▁vinyl	-11.3468
▁warrior	-11.3468
▁accessory	-11.3468
▁fungus	-11.3468
▁funnel	-11.3468
▁labor	-11.3468
▁outward	-11.3468
▁invented	-11.3468
▁trash	-11.3468
▁yarn	-11.3468
▁composition	-11.3468
▁carrot	-11.3468
▁disabilities	-11.3468
▁forehead	-11.3468
▁headache	-11.3468
▁crucial	-11.3468
▁overcome	-11.3468
▁odor	-11.3468
▁bridle	-11.3468
▁nerve	-11.3468
▁throat	-11.3468
▁goggles	-11.3469
▁jet	-11.3469
▁calves	-11.3469
▁ginger	-11.3469
▁collectible	-11.3469
▁sprint	-11.3469
▁elevation	-11.3469
▁mash	-11.3469
▁slab	-11.3469
▁absolute	-11.3469
▁fantastic	-11.3469
▁freestyle	-11.3469
▁grape	-11.3469
▁andrews	-11.3469
▁clearwater	-11.3469
▁zap	-11.347
▁truth	-11.347
▁unlike	-11.347
▁medication	-11.347
▁luck	-11.347
▁hangover	-11.347
ratche	-11.347
▁stainless	-11.347
▁diving	-11.347
▁sight	-11.347
▁broad	-11.347
▁flop	-11.3471
▁snowman	-11.3471
▁mango	-11.3471
▁reflection	-11.3471
▁cylinder	-11.3471
▁epi	-11.3471
▁specialty	-11.3472
eddy	-11.3472
▁headstand	-11.3472
▁slot	-11.3472
▁exit	-11.3472
▁liter	-11.3472
▁primar	-11.3472
▁drainage	-11.3473
▁nil	-11.3473
▁additional	-11.3473
▁bust	-11.3473
tory	-11.3473
▁theory	-11.3474
▁lenses	-11.3475
▁proof	-11.3475
▁strainer	-11.3475
▁highway	-11.3475
▁tries	-11.3476
▁char	-11.3477
▁chrome	-11.3477
▁psychology	-11.3477
▁buckle	-11.3478
▁neckline	-11.3479
▁format	-11.348
▁currently	-11.348
▁largest	-11.348
▁basement	-11.3481
▁carbohydrates	-11.3483
▁princ	-11.3483
▁thus	-11.3484
dab	-11.3485
▁fastest	-11.3485
▁viewer	-11.3486
▁styling	-11.3486
▁exposed	-11.3487
▁younger	-11.3487
▁related	-11.3487
▁decreas	-11.3488
▁friendly	-11.3488
4-4_	-11.349
▁inspired	-11.3491
▁flatter	-11.3491
▁sewer	-11.3494
▁tempo	-11.3498
ified	-11.3499
▁footage	-11.3499
▁34	-11.3502
▁chill	-11.3503
▁smoking	-11.3504
▁cooker	-11.3507
▁regulations	-11.3508
▁53	-11.3511
▁frosting	-11.3515
▁readi	-11.3516
▁stapler	-11.3517
▁invit	-11.3518
▁photographing	-11.3519
right	-11.3521
▁formal	-11.3524
▁masse	-11.3528
▁meter	-11.3532
▁farther	-11.3533
▁craps	-11.3534
▁ya	-11.3541
▁social	-11.3549
▁enable	-11.355
▁cooler	-11.355
ww	-11.3551
▁bearing	-11.3555
▁rely	-11.3557
▁clues	-11.3561
▁minerals	-11.3561
▁strain	-11.3572
▁locks	-11.3574
▁selected	-11.3575
▁etc	-11.3576
▁dive	-11.3587
▁enchiladas	-11.3587
▁intervals	-11.3587
▁interior	-11.3592
▁skiing	-11.3601
▁bands	-11.3603
▁alex	-11.3605
▁secondly	-11.3609
▁lap	-11.3619
▁discussed	-11.3621
▁flavored	-11.3621
▁span	-11.3622
▁lengthening	-11.3623
▁services	-11.3629
▁producer	-11.3637
4-4_1	-11.3643
▁ty	-11.3648
▁controll	-11.3685
▁fet	-11.3686
▁tar	-11.369
▁bagg	-11.3711
▁glide	-11.3716
▁festivals	-11.372
▁fork	-11.3725
tell	-11.3729
▁mac	-11.3753
038	-11.3762
▁selling	-11.3768
▁golfer	-11.379
▁dan	-11.3794
▁tee	-11.3798
▁41	-11.3799
▁clippers	-11.3801
▁drilling	-11.381
▁ding	-11.3815
▁lats	-11.382
▁outdoors	-11.3828
▁punching	-11.3853
▁mats	-11.3863
▁checked	-11.3865
▁importantly	-11.3871
▁ham	-11.3874
▁wors	-11.3877
▁tabs	-11.3883
▁males	-11.3885
▁pairing	-11.3889
▁matching	-11.3893
▁minimiz	-11.3894
▁handler	-11.3905
▁mountains	-11.391
▁cheers	-11.391
▁ending	-11.3913
▁ho	-11.3913
▁flags	-11.3938
▁prepp	-11.3954
rish	-11.3975
▁wa	-11.3977
▁inflat	-11.3991
▁females	-11.3992
utch	-11.4037
cial	-11.4079
▁offers	-11.4089
▁ni	-11.4112
▁artists	-11.413
▁devices	-11.4158
▁compromise	-11.4165
org	-11.4179
▁costs	-11.4186
nce	-11.4194
▁mental	-11.4213
▁brands	-11.4214
▁importan	-11.4217
▁russ	-11.4259
lot	-11.4264
▁commands	-11.427
▁rep	-11.4274
▁rotat	-11.4281
lance	-11.4324
▁repeats	-11.4327
▁tw	-11.4335
_16-	-11.4398
▁brow	-11.44
ony	-11.4401
▁actions	-11.4412
▁wav	-11.4438
▁calling	-11.4442
▁wo	-11.4446
▁swa	-11.4449
▁explode	-11.4461
▁chunk	-11.4494
▁stake	-11.4497
▁director	-11.45
▁guest	-11.45
▁journal	-11.4501
unk	-11.4502
▁choo	-11.4507
▁backward	-11.4508
▁cutter	-11.4559
▁ages	-11.456
pped	-11.4561
▁involv	-11.4584
▁boxer	-11.4595
▁environmental	-11.4615
all	-11.4644
▁gar	-11.4653
▁gener	-11.4655
▁cran	-11.4666
▁convenien	-11.4671
▁cushion	-11.4675
▁surround	-11.4677
house	-11.4686
flow	-11.4687
case	-11.4688
▁caus	-11.4693
asana	-11.4694
plant	-11.4695
ector	-11.4696
that	-11.4696
ball	-11.4697
dge	-11.4701
▁organize	-11.4705
▁isolate	-11.4705
undry	-11.4706
enter	-11.4707
▁slipper	-11.4708
▁initial	-11.4712
▁poor	-11.4715
▁react	-11.4717
▁whisk	-11.4717
▁distinct	-11.4718
▁regard	-11.4718
▁imagina	-11.4718
▁vegeta	-11.4718
▁knead	-11.4718
▁quad	-11.4718
▁quilt	-11.4718
▁scoot	-11.4718
▁shallow	-11.4718
▁tutor	-11.4718
▁additives	-11.4718
▁attempt	-11.4718
▁bicep	-11.4718
▁blind	-11.4718
▁bruni	-11.4718
▁bulgaria	-11.4718
▁calcium	-11.4718
▁calculat	-11.4718
▁canadian	-11.4718
▁century	-11.4718
▁cichlids	-11.4718
▁cilantro	-11.4718
▁compact	-11.4718
▁context	-11.4718
▁corrosion	-11.4718
▁cricket	-11.4718
▁decorating	-11.4718
▁denture	-11.4718
▁determining	-11.4718
▁drama	-11.4718
▁electronics	-11.4718
▁embellish	-11.4718
▁engaging	-11.4718
▁enhance	-11.4718
▁esteem	-11.4718
▁excite	-11.4718
▁foremost	-11.4718
▁friction	-11.4718
▁german	-11.4718
▁gorgeous	-11.4718
▁grandmother	-11.4718
▁grapevine	-11.4718
▁hurricane	-11.4718
▁improvisation	-11.4718
▁indicator	-11.4718
▁industrial	-11.4718
▁influence	-11.4718
▁knit	-11.4718
▁knuckle	-11.4718
▁ladder	-11.4718
▁lauren	-11.4718
▁mermaid	-11.4718
▁modify	-11.4718
▁moisturizing	-11.4718
▁mushroom	-11.4718
▁participant	-11.4718
▁piercing	-11.4718
▁professor	-11.4718
▁promenade	-11.4718
▁pyramid	-11.4718
▁rake	-11.4718
▁reapply	-11.4718
▁refractometer	-11.4718
▁reminder	-11.4718
▁remote	-11.4718
▁scarecrow	-11.4718
▁seafood	-11.4718
▁simmer	-11.4718
▁snatch	-11.4718
▁snout	-11.4718
▁strategy	-11.4718
▁strict	-11.4718
▁suction	-11.4718
▁transaction	-11.4718
▁translucent	-11.4718
▁transport	-11.4718
▁tunnel	-11.4718
▁tuxedo	-11.4718
▁undercoat	-11.4718
▁victim	-11.4718
▁ashley	-11.4718
▁emphasize	-11.4718
▁evaluat	-11.4718
▁ferry	-11.4718
▁pendant	-11.4718
▁cement	-11.4718
▁kyle	-11.4718
▁rattle	-11.4718
▁smile	-11.4718
▁jig	-11.4718
▁foreground	-11.4718
▁intense	-11.4718
▁squish	-11.4718
▁backyard	-11.4718
▁eyeliner	-11.4718
▁properties	-11.4718
▁adequate	-11.4718
▁convertible	-11.4718
▁sunny	-11.4718
▁jawfish	-11.4718
▁larew	-11.4718
▁disinfectant	-11.4718
▁edible	-11.4718
▁hunt	-11.4718
▁insulate	-11.4718
▁jim	-11.4718
▁atlant	-11.4718
▁portrait	-11.4719
ature	-11.4719
▁framing	-11.4719
▁nineteen	-11.4719
▁mike	-11.4719
▁failure	-11.4719
▁tomorrow	-11.4719
▁salary	-11.4719
▁sparkler	-11.4719
▁hydrated	-11.4719
▁rush	-11.4719
▁possibilities	-11.4719
▁skinny	-11.4719
▁fumes	-11.4719
▁foul	-11.4719
▁bidding	-11.4719
▁clinic	-11.4719
▁laser	-11.4719
▁taut	-11.4719
▁trimmed	-11.4719
▁boring	-11.4719
▁accessible	-11.4719
▁pathway	-11.4719
▁centerpiece	-11.4719
▁identified	-11.4719
▁dart	-11.4719
▁bang	-11.4719
▁gui	-11.4719
▁network	-11.4719
▁qualif	-11.4719
▁picket	-11.472
▁zipper	-11.472
▁intention	-11.472
▁reproduction	-11.472
▁slant	-11.472
▁breve	-11.472
▁swab	-11.472
▁snowboard	-11.472
▁waterproof	-11.472
▁host	-11.472
▁tarp	-11.4721
▁eyelashes	-11.4721
▁capacity	-11.4721
▁lane	-11.4721
▁clogg	-11.4721
▁swell	-11.4721
▁wise	-11.4721
▁wol	-11.4722
▁development	-11.4722
▁scarf	-11.4722
▁chopping	-11.4722
▁irri	-11.4722
▁lace	-11.4722
▁prone	-11.4722
▁lb	-11.4722
▁127	-11.4722
▁chap	-11.4722
▁tanning	-11.4723
▁layout	-11.4723
▁shedding	-11.4723
▁manna	-11.4724
▁analyz	-11.4724
rench	-11.4724
▁desk	-11.4725
▁ideally	-11.4725
▁central	-11.4725
▁crowd	-11.4725
▁thoroughly	-11.4725
nightmare	-11.4725
▁flipp	-11.4725
▁alignment	-11.4726
▁relieve	-11.4728
▁station	-11.4728
▁download	-11.4729
▁duty	-11.473
▁spotting	-11.473
▁steer	-11.473
▁prevention	-11.4732
▁visually	-11.4732
cular	-11.4733
▁ven	-11.4734
▁combined	-11.4736
▁199	-11.4737
▁157	-11.4737
▁laugh	-11.4738
▁fasten	-11.4738
▁bori	-11.4741
▁killer	-11.4742
▁contribute	-11.4742
▁firmly	-11.4746
▁roy	-11.4746
▁individually	-11.4747
▁volt	-11.4747
▁effectively	-11.4747
mmy	-11.475
rinkle	-11.475
▁consumer	-11.4751
▁signal	-11.4752
▁surrounding	-11.476
▁planne	-11.476
▁hardest	-11.4761
▁glossy	-11.4761
▁harden	-11.4763
▁noodles	-11.4764
▁ideal	-11.4765
▁upright	-11.4766
▁screaming	-11.4766
▁dye	-11.477
▁spike	-11.4771
▁healing	-11.4771
▁manager	-11.4774
▁85	-11.4777
▁46	-11.4785
start	-11.4785
▁expos	-11.4787
▁69	-11.4788
▁killed	-11.4789
▁curved	-11.4789
▁grown	-11.4794
▁stressed	-11.4795
▁35	-11.4797
▁greatest	-11.4804
▁warn	-11.4808
▁lateral	-11.4809
▁breading	-11.4811
▁beautifully	-11.4811
▁chase	-11.4817
▁floating	-11.4827
mails	-11.4828
▁seasoning	-11.4833
▁served	-11.4833
▁lint	-11.4838
▁tucked	-11.484
▁canoeing	-11.4844
▁links	-11.4854
▁shears	-11.4854
▁greg	-11.487
lvin	-11.4875
▁petals	-11.4885
▁numer	-11.4888
eye	-11.489
▁pine	-11.489
ripped	-11.4909
▁angled	-11.4935
▁har	-11.4936
bed	-11.4936
▁stakes	-11.4945
▁mal	-11.4951
▁dressing	-11.4964
▁boxers	-11.4964
▁peeling	-11.4965
▁comics	-11.4972
▁hurting	-11.4974
▁introduc	-11.4997
▁pod	-11.5002
▁stitching	-11.5003
▁crystals	-11.5006
dden	-11.5007
tories	-11.5014
▁gobo	-11.5035
▁sharks	-11.5037
▁nip	-11.5039
▁factors	-11.5041
▁hooked	-11.5052
▁smok	-11.5057
▁twisted	-11.5067
▁65	-11.5074
▁heated	-11.5095
▁samples	-11.5099
▁pant	-11.5114
▁stabilize	-11.5136
▁aces	-11.514
▁33	-11.5214
▁motorcycles	-11.5224
▁transitions	-11.5255
▁kayaks	-11.5257
▁files	-11.5263
▁bother	-11.5276
▁folding	-11.5279
ode	-11.5309
▁cheeks	-11.5318
▁rollers	-11.5321
▁advantages	-11.535
▁bonds	-11.5372
water	-11.5373
▁brushed	-11.539
▁exfoliat	-11.5405
▁logs	-11.5463
▁dripp	-11.5477
ngle	-11.5477
▁slope	-11.5521
▁carb	-11.5556
verse	-11.5705
-0	-11.5732
where	-11.5733
ana	-11.5733
▁39	-11.5838
▁adapt	-11.5843
▁robe	-11.5857
▁depend	-11.589
▁ran	-11.5892
cross	-11.5907
▁magneti	-11.5912
▁tricep	-11.5923
▁parent	-11.5932
▁disk	-11.5948
cle	-11.5961
ini	-11.5969
▁79	-11.5982
▁pill	-11.6053
▁stud	-11.6057
▁provid	-11.6075
▁stimulat	-11.6085
▁weigh	-11.609
color	-11.6091
▁temp	-11.6095
lon	-11.6107
▁backpack	-11.6107
view	-11.6113
neck	-11.6115
made	-11.6117
beat	-11.612
▁indirect	-11.6129
home	-11.6129
this	-11.613
▁crunch	-11.6131
▁junk	-11.6132
▁temper	-11.6132
▁cloud	-11.6134
▁psycholog	-11.6135
▁heavi	-11.614
▁bik	-11.6141
▁technical	-11.6141
▁whi	-11.6143
▁express	-11.6145
▁complex	-11.6145
▁scienti	-11.6146
▁fool	-11.6146
▁auto	-11.6146
ological	-11.6146
▁occasion	-11.6146
▁$1	-11.6147
etti	-11.6147
ization	-11.6147
lumin	-11.6147
▁accomplish	-11.6147
▁acoustic	-11.6147
▁adhesive	-11.6147
▁administrat	-11.6147
▁airport	-11.6147
▁appetite	-11.6147
▁aquatic	-11.6147
▁bristle	-11.6147
▁channel	-11.6147
▁cherry	-11.6147
▁cinnamon	-11.6147
▁communicating	-11.6147
▁coordinate	-11.6147
▁coordination	-11.6147
▁creep	-11.6147
▁daisy	-11.6147
▁denim	-11.6147
▁distribution	-11.6147
▁divorce	-11.6147
▁doorknob	-11.6147
▁enamel	-11.6147
▁endurance	-11.6147
▁enlarger	-11.6147
▁entrance	-11.6147
▁enzyme	-11.6147
▁escape	-11.6147
▁essence	-11.6147
▁expansion	-11.6147
▁explore	-11.6147
▁facility	-11.6147
▁families	-11.6147
▁faucet	-11.6147
▁firing	-11.6147
▁fragile	-11.6147
▁garnish	-11.6147
▁gasket	-11.6147
▁herself	-11.6147
▁illnesses	-11.6147
▁illustrator	-11.6147
▁jesus	-11.6147
▁karie	-11.6147
▁maddaloni	-11.6147
▁muffin	-11.6147
▁murderer	-11.6147
▁navigat	-11.6147
▁negotiat	-11.6147
▁offensive	-11.6147
▁olympic	-11.6147
▁organizing	-11.6147
▁perimeter	-11.6147
▁petersburg	-11.6147
▁pigeon	-11.6147
▁platter	-11.6147
▁prayer	-11.6147
▁psychiatrist	-11.6147
▁pupil	-11.6147
▁radial	-11.6147
▁rail	-11.6147
▁receipt	-11.6147
▁removal	-11.6147
▁resemble	-11.6147
▁responsible	-11.6147
▁sebum	-11.6147
▁silhouette	-11.6147
▁smart	-11.6147
▁smear	-11.6147
▁soothing	-11.6147
▁stool	-11.6147
▁submerge	-11.6147
▁supplements	-11.6147
▁tobacco	-11.6147
▁tortoise	-11.6147
▁toxoplasmosis	-11.6147
▁tremendous	-11.6147
▁tumble	-11.6147
▁underwire	-11.6147
▁vacuum	-11.6147
▁vibration	-11.6147
▁wilmington	-11.6147
▁worried	-11.6147
▁yolk	-11.6147
	-11.6147
▁fringe	-11.6147
▁kryny	-11.6147
▁lashes	-11.6147
▁pigment	-11.6147
▁practical	-11.6147
▁proceed	-11.6147
▁ruff	-11.6147
▁spiritual	-11.6147
▁bunny	-11.6147
▁extraction	-11.6147
▁interfere	-11.6147
▁isolation	-11.6147
▁jerk	-11.6147
▁overnight	-11.6147
▁prun	-11.6147
▁floral	-11.6147
▁suspen	-11.6147
▁region	-11.6147
▁ryan	-11.6147
▁claire	-11.6147
▁vital	-11.6147
▁adobe	-11.6147
▁ticket	-11.6147
▁glob	-11.6147
▁hockey	-11.6147
▁sizzl	-11.6147
▁motor	-11.6147
▁lily	-11.6147
▁coast	-11.6147
rote	-11.6147
▁squirt	-11.6147
▁downhill	-11.6147
▁shout	-11.6147
▁puffiness	-11.6147
▁awful	-11.6147
▁pregnant	-11.6147
▁tonight	-11.6147
▁graham	-11.6147
▁grand	-11.6148
▁incline	-11.6148
▁management	-11.6148
▁weekend	-11.6148
▁rubbed	-11.6148
▁100%	-11.6148
▁jason	-11.6148
▁cannon	-11.6148
▁cooper	-11.6148
▁bush	-11.6148
▁assist	-11.6149
▁drape	-11.6149
▁affordable	-11.6149
▁manageable	-11.6149
▁slate	-11.6149
▁comedy	-11.6149
▁tax	-11.6149
▁replacement	-11.6149
▁ultimately	-11.6149
▁trapped	-11.6149
▁oregon	-11.615
▁infuser	-11.615
▁sneaky	-11.615
▁attachment	-11.615
▁popcorn	-11.615
▁sift	-11.615
▁stripper	-11.615
▁shaping	-11.615
▁alive	-11.6151
ifu	-11.6151
▁aquarium	-11.6152
▁outfitter	-11.6152
volley	-11.6152
▁128	-11.6152
▁wow	-11.6152
▁drawback	-11.6152
▁coil	-11.6153
▁graphic	-11.6153
▁170	-11.6154
▁terrible	-11.6154
▁assum	-11.6154
▁140	-11.6154
▁arriv	-11.6155
▁adjustable	-11.6156
▁repaint	-11.6157
▁exhaling	-11.6157
▁carton	-11.6157
restrict	-11.6157
▁candy	-11.6157
▁jen	-11.6159
▁buildup	-11.6159
▁reuse	-11.6161
▁manually	-11.6162
▁organized	-11.6163
▁attaches	-11.6163
▁149	-11.6164
▁stra	-11.6164
▁undo	-11.6165
▁riders	-11.6166
▁lawn	-11.6166
▁molecules	-11.6166
▁bumper	-11.6167
verbal	-11.6167
▁discolor	-11.6168
▁stabilized	-11.6168
▁99	-11.6169
▁jane	-11.6169
fic	-11.6171
▁warmth	-11.6171
▁inject	-11.6172
▁107	-11.6172
▁stitches	-11.6173
▁formation	-11.6173
▁quote	-11.6174
hoe	-11.6175
▁camping	-11.6176
ament	-11.6176
▁rebounding	-11.6176
▁established	-11.6178
▁conduc	-11.6178
▁113	-11.618
▁distribute	-11.618
▁194	-11.6181
▁stacked	-11.6184
▁rougher	-11.6186
▁fee	-11.6187
▁christi	-11.6188
▁putty	-11.6193
▁tensioner	-11.6198
▁ram	-11.6198
▁fighter	-11.6198
▁missed	-11.6198
▁engaged	-11.6199
▁uno	-11.62
▁57	-11.62
▁calories	-11.62
▁capitals	-11.62
▁steamer	-11.6201
▁nu	-11.6205
▁loosely	-11.6206
▁incorporated	-11.6207
▁58	-11.6208
▁catches	-11.6211
▁melted	-11.6213
▁71	-11.6214
point	-11.6215
▁processes	-11.6219
of	-11.6219
▁lightening	-11.6222
▁sill	-11.6222
orize	-11.623
▁142	-11.623
▁colon	-11.6232
▁scallops	-11.6235
▁reporter	-11.6235
▁55	-11.6235
▁66	-11.6235
▁tubing	-11.6241
▁smoother	-11.6245
leave	-11.625
▁separated	-11.6257
stru	-11.6258
▁mastered	-11.6259
▁died	-11.626
▁scratching	-11.6261
▁regularly	-11.6264
▁financi	-11.6265
▁experienced	-11.6267
▁mist	-11.627
▁expenses	-11.627
▁instructions	-11.627
▁principles	-11.627
▁bucks	-11.627
▁saved	-11.6272
▁warmer	-11.6276
▁burner	-11.6294
dominan	-11.6296
▁stairs	-11.6303
her	-11.6304
▁chameleons	-11.6305
▁obstacles	-11.634
▁cab	-11.6344
▁burned	-11.6348
▁listening	-11.6353
▁dresser	-11.6369
0%	-11.637
▁triceps	-11.6376
erial	-11.6394
▁bout	-11.6406
▁chunks	-11.6412
▁directors	-11.6413
lock	-11.6428
▁packing	-11.6465
▁correcting	-11.6473
zo	-11.6476
▁toner	-11.6487
▁fins	-11.6487
▁song	-11.6509
▁brows	-11.6518
bail	-11.6534
▁combing	-11.6558
▁demonstrat	-11.6562
▁cal	-11.6586
▁celebrat	-11.6593
▁121	-11.6702
▁dome	-11.6726
▁ug	-11.6733
▁accumulate	-11.6787
▁slop	-11.6806
▁lubricate	-11.6832
olic	-11.6879
▁bon	-11.6895
role	-11.6952
▁300	-11.6954
ddle	-11.6955
ex	-11.7033
▁tint	-11.7036
▁pe	-11.7082
gan	-11.7104
za	-11.7111
mus	-11.7121
▁popp	-11.7154
▁cla	-11.7202
erate	-11.7204
▁mich	-11.7282
▁89	-11.7357
▁designate	-11.7372
teen	-11.7418
ura	-11.7424
ray	-11.7478
▁gla	-11.7502
2-3	-11.7511
▁tast	-11.7515
▁blonde	-11.7519
▁manipulate	-11.756
our	-11.7584
▁obstacle	-11.759
▁chan	-11.7591
▁wrinkle	-11.7598
▁component	-11.7599
▁indicate	-11.76
▁gum	-11.7608
▁spade	-11.7615
dding	-11.7617
▁petal	-11.7626
haw	-11.7661
▁magn	-11.7668
ison	-11.7704
▁receiv	-11.7739
worker	-11.774
▁bou	-11.7749
▁fo	-11.7752
▁seni	-11.7758
style	-11.7769
inkle	-11.777
▁consume	-11.777
▁bronze	-11.777
▁moisturize	-11.7771
production	-11.7779
▁balanc	-11.778
ounce	-11.7781
▁lov	-11.7781
click	-11.7782
keep	-11.7782
foot	-11.7782
step	-11.7783
allet	-11.7783
creasing	-11.7783
word	-11.7787
▁publish	-11.7791
duct	-11.7795
stand	-11.7798
▁integrate	-11.78
▁jones	-11.7801
▁buff	-11.7807
stock	-11.781
▁sal	-11.781
▁according	-11.781
▁plast	-11.7811
script	-11.7812
▁threat	-11.7812
▁fantas	-11.7812
▁confine	-11.7813
▁reinforce	-11.7813
▁watt	-11.7813
▁favor	-11.7813
indy	-11.7813
▁architect	-11.7813
▁skate	-11.7813
cycl	-11.7813
▁flamingo	-11.7814
▁terra	-11.7814
▁penetrat	-11.7814
▁satisf	-11.7814
counterclockwise	-11.7814
renovations	-11.7814
▁activate	-11.7814
▁adhd	-11.7814
▁altogether	-11.7814
▁amateur	-11.7814
▁amelia	-11.7814
▁amplifier	-11.7814
▁appetiz	-11.7814
▁applies	-11.7814
▁arrange	-11.7814
▁asynch	-11.7814
▁babies	-11.7814
▁behalf	-11.7814
▁blast	-11.7814
▁broadcast	-11.7814
▁burpies	-11.7814
▁caribbean	-11.7814
▁caricature	-11.7814
▁combustible	-11.7814
▁conclude	-11.7814
▁configuration	-11.7814
▁correspond	-11.7814
▁creativity	-11.7814
▁croco	-11.7814
▁crocosmia	-11.7814
▁decade	-11.7814
▁dementia	-11.7814
▁diffuse	-11.7814
▁diminished	-11.7814
▁dissolv	-11.7814
▁dizzy	-11.7814
▁emulsion	-11.7814
▁extruder	-11.7814
▁flutter	-11.7814
▁follicle	-11.7814
▁francisco	-11.7814
▁gadget	-11.7814
▁ganache	-11.7814
▁hairspray	-11.7814
▁horribl	-11.7814
▁hungry	-11.7814
▁hurdle	-11.7814
▁hydrogen	-11.7814
▁identical	-11.7814
▁illustrate	-11.7814
▁intended	-11.7814
▁intermediate	-11.7814
▁joke	-11.7814
▁journey	-11.7814
▁kidney	-11.7814
▁meringue	-11.7814
▁mosaic	-11.7814
▁mushy	-11.7814
▁neglect	-11.7814
▁nonsense	-11.7814
▁obliques	-11.7814
▁organism	-11.7814
▁outlook	-11.7814
▁paintbrush	-11.7814
▁peonies	-11.7814
▁phrase	-11.7814
▁picnic	-11.7814
▁pliable	-11.7814
▁poetry	-11.7814
▁prescribe	-11.7814
▁promote	-11.7814
▁racquet	-11.7814
▁reliable	-11.7814
▁remedies	-11.7814
▁repellent	-11.7814
▁respirator	-11.7814
▁responsibility	-11.7814
▁shimmer	-11.7814
▁shrunken	-11.7814
▁solitaire	-11.7814
▁spool	-11.7814
▁strategies	-11.7814
▁streak	-11.7814
▁sunglasses	-11.7814
▁survey	-11.7814
▁syrup	-11.7814
▁tarleton	-11.7814
▁therapeutic	-11.7814
▁therapies	-11.7814
▁toothpaste	-11.7814
▁tortillas	-11.7814
▁uncommon	-11.7814
▁velocity	-11.7814
▁vinegar	-11.7814
▁vorrac	-11.7814
▁wheelchair	-11.7814
▁death	-11.7814
▁hulk	-11.7814
▁moderate	-11.7814
▁plumber	-11.7814
▁plumbing	-11.7814
▁utilit	-11.7814
▁automo	-11.7814
▁firefly	-11.7814
▁rapid	-11.7814
▁scrubbing	-11.7814
▁thrusts	-11.7814
▁bank	-11.7814
▁deuce	-11.7814
▁indication	-11.7814
▁jogging	-11.7814
▁piston	-11.7814
▁reflexolog	-11.7814
▁tuning	-11.7814
▁weird	-11.7814
▁icebreaker	-11.7814
▁reef	-11.7814
▁urina	-11.7814
▁amanda	-11.7814
▁basil	-11.7814
▁mites	-11.7814
▁population	-11.7814
▁umb	-11.7814
ogen	-11.7814
▁robot	-11.7814
▁diesel	-11.7814
▁oftentimes	-11.7814
▁comedian	-11.7814
▁salsa	-11.7814
▁thru	-11.7814
▁disconnect	-11.7814
▁peddle	-11.7814
▁basin	-11.7814
▁equip	-11.7814
▁hobby	-11.7814
▁scrapbook	-11.7814
▁stylist	-11.7814
olster	-11.7814
▁spacing	-11.7814
▁storm	-11.7814
▁division	-11.7814
▁award	-11.7814
kfg	-11.7814
▁greenery	-11.7814
▁western	-11.7814
▁irritate	-11.7814
▁metabolism	-11.7814
▁balm	-11.7814
▁fudge	-11.7814
temporary	-11.7814
▁mastry	-11.7814
▁veil	-11.7814
▁padding	-11.7814
▁horn	-11.7814
▁holga	-11.7814
▁crumb	-11.7814
▁yeast	-11.7814
▁affiliation	-11.7814
▁feedback	-11.7814
▁devil	-11.7814
▁chapped	-11.7814
▁sandpaper	-11.7814
▁groom	-11.7814
▁orientation	-11.7815
▁alter	-11.7815
▁signature	-11.7815
▁ranch	-11.7815
▁porous	-11.7815
▁marsh	-11.7815
▁latte	-11.7815
▁eyelash	-11.7815
▁neutralize	-11.7815
▁marble	-11.7815
▁portable	-11.7816
▁complexion	-11.7816
▁cubes	-11.7816
▁refu	-11.7816
▁pale	-11.7816
▁sunlight	-11.7816
ttle	-11.7817
▁pageant	-11.7817
▁progression	-11.7817
▁solar	-11.7817
unch	-11.7818
▁propel	-11.7818
▁goalie	-11.7818
▁assembly	-11.7818
▁hiding	-11.7818
▁indian	-11.7818
iday	-11.7818
▁pinkie	-11.7818
▁keyboard	-11.7818
▁vice	-11.7819
▁lars	-11.7819
▁dipping	-11.7819
▁fluffy	-11.7819
▁hopping	-11.782
▁slipping	-11.782
▁160	-11.782
▁118	-11.782
▁exception	-11.782
▁tabletop	-11.7821
▁menu	-11.7821
▁contraction	-11.7821
▁installation	-11.7821
▁gut	-11.7822
▁163	-11.7822
▁1.5	-11.7822
▁initially	-11.7822
▁refined	-11.7822
▁allowance	-11.7822
▁174	-11.7822
▁125	-11.7823
▁129	-11.7823
▁115	-11.7823
▁presentation	-11.7823
▁nest	-11.7824
▁scratches	-11.7824
▁someplace	-11.7824
▁suggestion	-11.7825
▁147	-11.7825
▁internally	-11.7826
▁188	-11.7826
▁mesh	-11.7826
▁dimensional	-11.7827
▁swan	-11.7827
▁math	-11.7827
▁kerr	-11.7828
▁consistently	-11.7829
▁97	-11.7829
▁relaxation	-11.7829
▁clipped	-11.783
▁relate	-11.7831
▁kenn	-11.7831
▁integrated	-11.7831
▁booster	-11.7831
▁employer	-11.7831
▁monthly	-11.7832
▁igg	-11.7832
▁suddenly	-11.7832
onie	-11.7833
▁145	-11.7833
▁moss	-11.7835
▁154	-11.7835
▁130	-11.7838
▁tempered	-11.7839
▁leftover	-11.7839
essica	-11.7839
▁union	-11.784
▁dresses	-11.784
▁tougher	-11.7841
▁96	-11.7842
▁dishes	-11.7843
▁farthe	-11.7845
copie	-11.7846
▁translate	-11.7847
orous	-11.7855
▁backbone	-11.7855
▁toast	-11.7856
▁sent	-11.7859
▁organ	-11.786
▁112	-11.7862
▁inspire	-11.7863
▁105	-11.7863
▁47	-11.7863
handed	-11.7866
▁83	-11.7866
▁attacker	-11.7866
▁88	-11.7871
▁mana	-11.7873
▁slick	-11.7875
▁arguments	-11.7877
▁sunflowers	-11.7877
▁nav	-11.788
▁parties	-11.788
▁received	-11.7882
▁rafting	-11.7887
▁gill	-11.7896
▁engineer	-11.7903
▁matting	-11.7908
▁dad	-11.7908
▁secured	-11.7924
ffic	-11.7927
▁breakup	-11.7928
issi	-11.7932
▁led	-11.7935
▁provided	-11.7937
▁kayaking	-11.7953
▁torn	-11.7955
▁coarser	-11.7964
▁performing	-11.7998
▁mor	-11.7999
▁stringer	-11.8002
▁fashioned	-11.8006
▁bob	-11.8007
rine	-11.8009
▁detailed	-11.8018
▁spec	-11.8029
▁windy	-11.8031
▁lit	-11.8033
▁grate	-11.8035
▁tipp	-11.8037
▁broke	-11.8043
▁listing	-11.8052
▁avoided	-11.8054
▁cent	-11.8054
30_	-11.8056
ush	-11.8076
bby	-11.81
▁blond	-11.8117
▁mis	-11.8119
▁stretchy	-11.8126
▁grac	-11.8197
▁jacki	-11.8216
▁breaker	-11.8238
▁gestur	-11.8281
▁examin	-11.8305
amp	-11.8383
▁skipp	-11.8439
▁elevate	-11.8499
clean	-11.8567
ever	-11.8577
ova	-11.86
evi	-11.8621
▁110	-11.8689
▁101	-11.8707
phy	-11.8713
erable	-11.8748
-0_	-11.8748
iva	-11.8766
▁painter	-11.8782
▁31	-11.8789
berg	-11.8805
potting	-11.9198
_19-	-11.9344
▁halt	-11.9378
day	-11.9503
cho	-11.9551
▁hydra	-11.9576
▁chameleon	-11.959
▁stair	-11.9593
▁enchilada	-11.9593
▁interval	-11.9593
▁tick	-11.9595
▁magazine	-11.9596
▁supplie	-11.9602
▁mile	-11.9602
▁actor	-11.9604
▁link	-11.9607
ub	-11.9615
ointed	-11.9671
▁shear	-11.9691
icker	-11.97
▁emer	-11.9705
amper	-11.9724
▁custom	-11.9734
▁162	-11.974
▁digit	-11.974
▁cul	-11.974
ough	-11.9757
ground	-11.976
▁rebound	-11.9771
▁amaz	-11.9776
down	-11.978
book	-11.9781
laugh	-11.9781
pong	-11.9781
tangle	-11.9782
glass	-11.9782
cloth	-11.9782
fold	-11.9782
just	-11.9782
watch	-11.9782
colored	-11.9783
fill	-11.9785
okay	-11.9787
▁musc	-11.9789
hood	-11.9794
▁multipl	-11.9799
▁confuse	-11.98
▁locate	-11.98
▁suppose	-11.98
▁define	-11.9801
▁absolut	-11.9801
▁surviv	-11.9801
goal	-11.9803
▁du	-11.9803
ford	-11.9804
▁spoke	-11.9805
▁constrict	-11.9806
▁detect	-11.9807
kay	-11.9808
cardi	-11.9808
▁tact	-11.9811
tually	-11.9811
▁skew	-11.9812
▁relation	-11.9813
&	-11.9813
▁boulder	-11.9814
▁explosi	-11.9814
cific	-11.9814
eaux	-11.9814
radiator	-11.9814
⁄	-11.9814
▁advise	-11.9814
▁agility	-11.9814
▁alligator	-11.9814
▁antibiotic	-11.9814
▁antibodies	-11.9814
▁appreciate	-11.9814
▁asymmetric	-11.9814
▁audio	-11.9814
▁automobile	-11.9814
▁backstroke	-11.9814
▁bamboo	-11.9814
▁bandsaw	-11.9814
▁boundaries	-11.9814
▁buffalo	-11.9814
▁casino	-11.9814
▁cavity	-11.9814
▁chuck	-11.9814
▁collapse	-11.9814
▁competing	-11.9814
▁complain	-11.9814
▁complication	-11.9814
▁confusing	-11.9814
▁considerably	-11.9814
▁consuming	-11.9814
▁cupcake	-11.9814
▁dandasana	-11.9814
▁davis	-11.9814
▁deflection	-11.9814
▁denial	-11.9814
▁deposit	-11.9814
▁destination	-11.9814
▁diarrhea	-11.9814
▁discou	-11.9814
▁distinguish	-11.9814
▁enclosed	-11.9814
▁exchange	-11.9814
▁feminine	-11.9814
▁fertiliz	-11.9814
▁fingerpicking	-11.9814
▁footwear	-11.9814
▁fragrance	-11.9814
▁froth	-11.9814
▁frustrating	-11.9814
▁geometr	-11.9814
▁ginjo	-11.9814
▁gloomy	-11.9814
▁goddess	-11.9814
▁honor	-11.9814
▁horseradish	-11.9814
▁illusion	-11.9814
▁insurance	-11.9814
▁intelligent	-11.9814
▁interception	-11.9814
▁intimidate	-11.9814
▁intricate	-11.9814
▁liqueur	-11.9814
▁married	-11.9814
▁massachusetts	-11.9814
▁mexico	-11.9814
▁nutmeg	-11.9814
▁oasis	-11.9814
▁pancake	-11.9814
▁paragraph	-11.9814
▁peralite	-11.9814
▁petunia	-11.9814
▁pistol	-11.9814
▁pixels	-11.9814
▁possum	-11.9814
▁printmaking	-11.9814
▁pursue	-11.9814
▁radiate	-11.9814
▁radius	-11.9814
▁reduction	-11.9814
▁refresh	-11.9814
▁regrow	-11.9814
▁remedy	-11.9814
▁removable	-11.9814
▁revenue	-11.9814
▁saturday	-11.9814
▁sauvignon	-11.9814
▁scenario	-11.9814
▁scheme	-11.9814
▁scott	-11.9814
▁screwdriver	-11.9814
▁sencha	-11.9814
▁sentinel	-11.9814
▁shiraz	-11.9814
▁silicone	-11.9814
▁smirnoff	-11.9814
▁smudge	-11.9814
▁society	-11.9814
▁software	-11.9814
▁spatula	-11.9814
▁spirit	-11.9814
▁striking	-11.9814
▁switzerland	-11.9814
▁technician	-11.9814
▁terminology	-11.9814
▁treasure	-11.9814
▁triathlon	-11.9814
▁utensils	-11.9814
▁vertebra	-11.9814
▁vibrate	-11.9814
▁wardrobe	-11.9814
▁yixing	-11.9814
cadill	-11.9814
▁alphabet	-11.9814
▁blink	-11.9814
▁calligraph	-11.9814
▁capelet	-11.9814
▁commode	-11.9814
▁creek	-11.9814
▁delay	-11.9814
▁descend	-11.9814
▁desert	-11.9814
▁disorder	-11.9814
▁distracted	-11.9814
▁harvest	-11.9814
▁helmet	-11.9814
▁mimic	-11.9814
▁nasty	-11.9814
▁prominen	-11.9814
▁promise	-11.9814
▁reinstall	-11.9814
▁scrunch	-11.9814
▁spouse	-11.9814
▁uneven	-11.9814
conscious	-11.9814
▁arrow	-11.9814
▁decay	-11.9814
▁detach	-11.9814
▁fisherman	-11.9814
▁fried	-11.9814
▁impart	-11.9814
▁limp	-11.9814
▁trunk	-11.9814
▁adhere	-11.9814
▁plexi	-11.9814
▁shy	-11.9814
▁germs	-11.9814
▁kelli	-11.9814
▁sensor	-11.9814
▁shelter	-11.9814
▁venom	-11.9814
▁antioxidants	-11.9814
▁oval	-11.9814
▁slicing	-11.9814
▁teammate	-11.9814
▁england	-11.9814
▁freedom	-11.9814
▁aesthetic	-11.9814
▁alarm	-11.9814
▁meditat	-11.9814
▁sabre	-11.9814
▁winner	-11.9814
▁spent	-11.9814
▁bulk	-11.9814
▁polymer	-11.9814
▁shortstop	-11.9814
▁peony	-11.9814
▁inward	-11.9814
▁veterinarian	-11.9814
▁stubb	-11.9814
▁suspect	-11.9814
▁liberal	-11.9814
▁anticipat	-11.9814
▁underarm	-11.9814
scope	-11.9814
▁padded	-11.9814
▁dorsi	-11.9814
▁earned	-11.9814
▁ahh	-11.9814
▁fiberglass	-11.9814
▁descent	-11.9814
▁magnify	-11.9814
▁nude	-11.9814
▁alien	-11.9814
▁forgot	-11.9814
▁assess	-11.9814
▁hunch	-11.9814
▁emil	-11.9814
▁prescription	-11.9814
▁copyright	-11.9814
▁initiati	-11.9814
▁assessment	-11.9814
▁entertainment	-11.9814
▁belay	-11.9814
▁humidity	-11.9814
▁assignment	-11.9814
▁summertime	-11.9814
▁cleft	-11.9814
▁fingerprint	-11.9814
▁synch	-11.9814
▁undulation	-11.9814
▁hype	-11.9814
▁indent	-11.9814
▁buttonhole	-11.9814
▁indeed	-11.9814
▁richard	-11.9814
▁deet	-11.9815
▁thailand	-11.9815
▁wattage	-11.9815
▁regardless	-11.9815
▁dehydration	-11.9815
▁elementary	-11.9815
▁blemishes	-11.9815
▁occurred	-11.9815
▁dash	-11.9815
▁greet	-11.9815
▁groin	-11.9815
▁arterial	-11.9815
▁agreement	-11.9815
▁voltage	-11.9815
▁retail	-11.9815
▁deficiency	-11.9815
▁vein	-11.9815
hanna	-11.9815
▁magnetism	-11.9815
▁carved	-11.9815
▁lager	-11.9815
▁wiping	-11.9816
▁lapel	-11.9816
▁touchdown	-11.9816
▁pipette	-11.9816
▁chili	-11.9816
▁assure	-11.9816
▁acceptable	-11.9817
▁gmail	-11.9817
▁fairway	-11.9817
▁spindle	-11.9817
▁fuzz	-11.9817
▁subjective	-11.9817
▁completion	-11.9817
▁ramp	-11.9817
▁loan	-11.9818
▁disclose	-11.9818
▁igoogle	-11.9818
▁claw	-11.9818
▁eyeball	-11.9818
▁excessive	-11.9818
▁electrician	-11.9818
▁grasp	-11.9818
▁continuously	-11.9819
▁fortunately	-11.9819
▁trav	-11.9819
▁delt	-11.9819
nife	-11.9819
▁commu	-11.9819
▁dix	-11.9819
▁vol	-11.9819
▁tide	-11.9819
▁saucers	-11.982
▁invest	-11.982
▁lifetime	-11.982
pleasant	-11.982
▁weaken	-11.982
▁yardage	-11.982
▁220	-11.982
▁nutrition	-11.9821
hine	-11.9821
▁template	-11.9821
▁spoken	-11.9822
▁erase	-11.9822
▁ingest	-11.9822
▁athletes	-11.9824
lime	-11.9824
▁254	-11.9825
▁filtration	-11.9825
▁119	-11.9826
▁244	-11.9826
▁hairstyle	-11.9827
▁defined	-11.9828
▁additionally	-11.9828
lywood	-11.9828
ulf	-11.9828
▁brighten	-11.9829
▁178	-11.9829
▁flexion	-11.9829
▁tasty	-11.9829
▁165	-11.983
▁169	-11.983
▁roman	-11.9831
▁138	-11.9833
▁efficiently	-11.9833
▁quietly	-11.9833
ette	-11.9833
▁vertically	-11.9834
▁collector	-11.9835
▁diagonally	-11.9836
▁98	-11.9836
▁259	-11.9836
▁restore	-11.9836
▁seriously	-11.9837
▁isolated	-11.9837
olog	-11.9838
▁131	-11.9838
▁reflector	-11.9838
▁pitches	-11.9838
▁panic	-11.9839
▁dau	-11.9839
▁pastel	-11.9839
▁strongest	-11.984
▁hiking	-11.9841
▁physically	-11.9841
▁dewy	-11.9843
▁horizontally	-11.9843
▁pond	-11.9843
▁licensed	-11.9844
▁cheaper	-11.9846
▁surprised	-11.9846
rtment	-11.9846
▁sen	-11.9851
▁hotel	-11.9851
▁parka	-11.9856
▁lately	-11.9856
▁colorful	-11.9857
▁camp	-11.9857
icable	-11.986
▁optional	-11.9861
osity	-11.9862
▁151	-11.9862
▁sad	-11.9864
evil	-11.9867
▁climber	-11.9868
▁aligned	-11.9869
▁forever	-11.9872
▁stickers	-11.9873
ravel	-11.9877
▁43	-11.9879
▁separately	-11.988
▁77	-11.9881
▁106	-11.9883
▁carol	-11.9884
▁cushioning	-11.9886
uchin	-11.9891
▁similarly	-11.9895
▁68	-11.9896
▁premi	-11.9904
▁generate	-11.9911
▁annual	-11.9916
▁professionally	-11.9917
▁mounted	-11.9917
▁moldy	-11.992
▁hike	-11.9925
▁performed	-11.9927
▁contaminate	-11.9929
▁waxes	-11.9929
▁included	-11.9932
▁asana	-11.9936
▁cracked	-11.9937
▁sliced	-11.9938
▁driven	-11.9945
▁sixes	-11.9948
▁flexed	-11.9951
▁soaked	-11.9951
▁freely	-11.9958
▁56	-11.996
▁versa	-11.9963
▁eu	-11.9969
▁bog	-11.9996
treat	-11.9999
▁bun	-12.0007
▁81	-12.0015
rescent	-12.0057
mediated	-12.006
%	-12.0095
▁fuse	-12.01
minate	-12.0127
ama	-12.0154
▁magnet	-12.0161
▁kneel	-12.0164
▁mudd	-12.0181
▁flu	-12.0191
aze	-12.0228
▁foc	-12.0234
eased	-12.0247
▁budd	-12.0283
▁che	-12.0365
▁mur	-12.0377
4_7-	-12.0395
▁pati	-12.0399
▁printer	-12.0413
ogram	-12.0415
4_5-	-12.0448
4_3-	-12.0483
▁flak	-12.0549
4_15-	-12.0556
mission	-12.0562
▁concentr	-12.0626
4_6-	-12.063
4_8-	-12.0697
▁personalize	-12.0715
▁replac	-12.0724
4_4-	-12.0728
4_2-	-12.0768
4_1-	-12.0879
▁pun	-12.0915
dual	-12.0967
▁mic	-12.1059
▁preserve	-12.1122
▁sto	-12.1159
▁uncle	-12.1201
▁pol	-12.1202
▁accumulat	-12.1228
ption	-12.1254
▁cardia	-12.1396
oil	-12.1455
spect	-12.1536
▁barb	-12.156
room	-12.1586
▁patien	-12.168
ghter	-12.1716
▁believ	-12.1717
suasive	-12.1719
▁glid	-12.1739
immers	-12.1743
▁mono	-12.1904
▁mobil	-12.1933
broker	-12.1953
▁$50	-12.1957
▁prepai	-12.1977
ggy	-12.2002
ngue	-12.2013
ggle	-12.2068
▁buck	-12.2073
stones	-12.2079
▁expense	-12.209
▁instruction	-12.209
▁principle	-12.209
▁clue	-12.2094
▁mineral	-12.2094
▁parrot	-12.2095
▁pelvi	-12.2096
▁origin	-12.2096
▁hamstring	-12.2098
▁fingertip	-12.2104
care	-12.2109
▁figur	-12.2111
▁styl	-12.2127
burns	-12.2144
▁produc	-12.215
▁formula	-12.2189
▁mul	-12.2206
pical	-12.2216
dependent	-12.2216
uchi	-12.2239
▁jam	-12.2246
▁lou	-12.2254
▁sho	-12.2256
load	-12.2259
▁manufacture	-12.2265
▁succ	-12.2267
▁poke	-12.2271
rolling	-12.2274
▁damag	-12.2275
▁curv	-12.2275
luck	-12.2281
▁separat	-12.2281
vision	-12.2281
pole	-12.2282
fiber	-12.2282
sounds	-12.2282
bulbs	-12.2282
exist	-12.2282
throw	-12.2282
with	-12.2283
two	-12.2284
six	-12.2285
▁thinne	-12.2285
▁employ	-12.2286
wrap	-12.2288
tail	-12.2289
▁bind	-12.229
ographic	-12.2291
▁relie	-12.2294
based	-12.2294
▁revers	-12.2296
▁blu	-12.2296
itted	-12.2299
mulate	-12.2299
▁circl	-12.2299
▁discourage	-12.2299
▁refine	-12.23
▁terribl	-12.2301
▁immun	-12.2301
▁geograph	-12.2302
▁graphi	-12.2302
▁opportunit	-12.2302
▁gro	-12.2302
▁energ	-12.2303
life	-12.2304
▁africa	-12.2306
▁numb	-12.2306
fish	-12.2306
▁analy	-12.2306
▁cylind	-12.2307
▁viol	-12.2307
▁fortunate	-12.2307
▁cogniti	-12.2307
▁constant	-12.2308
▁immediate	-12.2308
sale	-12.2309
▁bin	-12.2309
lasses	-12.2311
▁interact	-12.2311
thus	-12.2311
ptical	-12.2312
▁chick	-12.2312
▁commit	-12.2312
▁orient	-12.2312
▁sync	-12.2312
▁humid	-12.2313
▁possibilit	-12.2313
▁conven	-12.2313
▁russel	-12.2313
▁sculpt	-12.2313
▁shri	-12.2313
▁convert	-12.2313
▁unplug	-12.2313
▁condens	-12.2314
sanctuary	-12.2314
▁sandwich	-12.2314
addario	-12.2314
merchant	-12.2314
oomph	-12.2314
propyl	-12.2314
tchen	-12.2314
▁$20	-12.2314
▁abilities	-12.2314
▁adventure	-12.2314
▁altitude	-12.2314
▁applicable	-12.2314
▁apprais	-12.2314
▁arizona	-12.2314
▁astringent	-12.2314
▁backcourt	-12.2314
▁blanc	-12.2314
▁brunette	-12.2314
▁burgundy	-12.2314
▁camisole	-12.2314
▁casual	-12.2314
▁chamomile	-12.2314
▁circumstances	-12.2314
▁clothespin	-12.2314
▁colander	-12.2314
▁colubridae	-12.2314
▁cornmeal	-12.2314
▁cosmetics	-12.2314
▁crooked	-12.2314
▁cuenco	-12.2314
▁curriculum	-12.2314
▁density	-12.2314
▁depression	-12.2314
▁detriment	-12.2314
▁devote	-12.2314
▁diagram	-12.2314
▁disapp	-12.2314
▁discharge	-12.2314
▁dispense	-12.2314
▁displacement	-12.2314
▁distille	-12.2314
▁distort	-12.2314
▁distributor	-12.2314
▁edited	-12.2314
▁electrology	-12.2314
▁embroider	-12.2314
▁energetic	-12.2314
▁envelope	-12.2314
▁equity	-12.2314
▁estimat	-12.2314
▁evidence	-12.2314
▁explanat	-12.2314
▁extensive	-12.2314
▁fahrenheit	-12.2314
▁fencing	-12.2314
▁ferment	-12.2314
▁fragrant	-12.2314
▁frustrated	-12.2314
▁garbage	-12.2314
▁genius	-12.2314
▁hallway	-12.2314
▁happie	-12.2314
▁hawaii	-12.2314
▁hickory	-12.2314
▁hospital	-12.2314
▁hurry	-12.2314
▁ignite	-12.2314
▁impersona	-12.2314
▁increment	-12.2314
▁ineffective	-12.2314
▁inflammation	-12.2314
▁integrity	-12.2314
▁intimidating	-12.2314
▁invisible	-12.2314
▁jog	-12.2314
▁judgment	-12.2314
▁keeley	-12.2314
▁kickboxing	-12.2314
▁koshinage	-12.2314
▁landlord	-12.2314
▁ligament	-12.2314
▁lilies	-12.2314
▁limon	-12.2314
▁lollipops	-12.2314
▁lubricant	-12.2314
▁mailbox	-12.2314
▁manifold	-12.2314
▁margarine	-12.2314
▁meerkat	-12.2314
▁monoxide	-12.2314
▁mosquito	-12.2314
▁motorcycling	-12.2314
▁northwest	-12.2314
▁ointment	-12.2314
▁pajama	-12.2314
▁palette	-12.2314
▁parasites	-12.2314
▁participate	-12.2314
▁patrick	-12.2314
▁pediatrician	-12.2314
▁periodically	-12.2314
▁perspective	-12.2314
▁pigtail	-12.2314
▁placket	-12.2314
▁pouch	-12.2314
▁praise	-12.2314
▁preferably	-12.2314
▁pregnancy	-12.2314
▁protrude	-12.2314
▁puppies	-12.2314
▁python	-12.2314
▁quadricep	-12.2314
▁receptacle	-12.2314
▁reception	-12.2314
▁rehearsals	-12.2314
▁residency	-12.2314
▁resolve	-12.2314
▁retention	-12.2314
▁retrieve	-12.2314
▁saturn	-12.2314
▁scapula	-12.2314
▁scheduling	-12.2314
▁skating	-12.2314
▁sludge	-12.2314
▁sprocket	-12.2314
▁sprout	-12.2314
▁substance	-12.2314
▁substitute	-12.2314
▁sukhasana	-12.2314
▁summarize	-12.2314
▁surgeon	-12.2314
▁swivel	-12.2314
▁swoop	-12.2314
▁symmetrical	-12.2314
▁symphony	-12.2314
▁telegraph	-12.2314
▁tepee	-12.2314
▁thief	-12.2314
▁threshold	-12.2314
▁tournament	-12.2314
▁tuft	-12.2314
▁tulip	-12.2314
▁turbine	-12.2314
▁ultra	-12.2314
▁unfamiliar	-12.2314
▁unlimited	-12.2314
▁unstable	-12.2314
▁victorian	-12.2314
▁whistle	-12.2314
▁windmill	-12.2314
▁workbench	-12.2314
▁brainstorm	-12.2314
▁brick	-12.2314
▁crumple	-12.2314
▁cucumber	-12.2314
▁defrost	-12.2314
▁dictate	-12.2314
▁disturb	-12.2314
▁econom	-12.2314
▁knight	-12.2314
▁marathon	-12.2314
▁marcel	-12.2314
▁marina	-12.2314
▁overpower	-12.2314
▁overwhelm	-12.2314
▁profit	-12.2314
▁request	-12.2314
▁retouch	-12.2314
▁steak	-12.2314
▁suffer	-12.2314
▁unpack	-12.2314
▁venue	-12.2314
▁$4	-12.2314
▁asleep	-12.2314
▁flamingosis	-12.2314
▁flee	-12.2314
▁gymnastics	-12.2314
▁homepage	-12.2314
▁nourish	-12.2314
▁offstage	-12.2314
▁president	-12.2314
▁puck	-12.2314
▁shelves	-12.2314
▁snip	-12.2314
▁toxins	-12.2314
▁walnut	-12.2314
▁cartoon	-12.2314
▁360	-12.2314
▁illuminat	-12.2314
▁lawyer	-12.2314
▁preheat	-12.2314
▁ribbing	-12.2314
▁accentuate	-12.2314
▁cider	-12.2314
▁rotor	-12.2314
▁yummy	-12.2314
▁congesti	-12.2314
▁counteract	-12.2314
▁demand	-12.2314
▁dooley	-12.2314
▁fascinat	-12.2314
▁joy	-12.2314
▁neely	-12.2314
▁orbital	-12.2314
▁sexual	-12.2314
▁inverted	-12.2314
▁richardson	-12.2314
konasana	-12.2314
▁discipline	-12.2314
▁apparent	-12.2314
▁mitt	-12.2314
▁presence	-12.2314
▁resell	-12.2314
▁elongate	-12.2314
▁lick	-12.2314
▁combining	-12.2314
ldxvg	-12.2314
▁cash	-12.2314
▁vending	-12.2314
aneous	-12.2314
▁camas	-12.2314
▁dragster	-12.2314
▁webster	-12.2314
▁blackheads	-12.2314
▁neighborhood	-12.2314
▁jay	-12.2314
▁tugging	-12.2314
▁disposition	-12.2314
▁workstation	-12.2314
▁deny	-12.2314
▁spell	-12.2314
▁employee	-12.2314
▁arrest	-12.2314
▁doubt	-12.2314
▁architecture	-12.2314
ylic	-12.2314
▁oops	-12.2314
▁swallow	-12.2314
▁elli	-12.2314
▁kidding	-12.2314
iffin	-12.2314
▁romantic	-12.2314
metric	-12.2314
▁committed	-12.2314
▁turtleneck	-12.2314
▁urn	-12.2314
▁referee	-12.2314
▁attend	-12.2314
▁entertain	-12.2314
▁wiring	-12.2314
▁modifie	-12.2314
▁verde	-12.2314
▁enrich	-12.2314
▁motivation	-12.2314
▁finesse	-12.2314
▁trauma	-12.2314
▁chronicle	-12.2314
▁carving	-12.2314
▁continuous	-12.2314
▁reinforcement	-12.2314
▁contemporary	-12.2315
▁functionality	-12.2315
▁heck	-12.2315
▁severe	-12.2315
▁mileage	-12.2315
imple	-12.2315
▁recycle	-12.2315
▁undone	-12.2315
▁rachel	-12.2315
▁drunk	-12.2315
▁tango	-12.2315
▁eric	-12.2315
▁saving	-12.2315
▁gust	-12.2315
▁respectful	-12.2315
▁germinat	-12.2315
▁sunday	-12.2315
▁saltwater	-12.2315
▁dramatically	-12.2315
▁rind	-12.2315
▁drift	-12.2315
▁peas	-12.2315
▁typing	-12.2315
▁bulls	-12.2315
▁interaction	-12.2315
▁skewers	-12.2315
▁progressive	-12.2316
▁kink	-12.2316
▁effortless	-12.2316
▁rach	-12.2316
aband	-12.2316
▁pleasing	-12.2316
▁unlock	-12.2316
▁saut	-12.2316
▁haul	-12.2316
▁optical	-12.2316
mbled	-12.2316
▁intestines	-12.2316
▁selv	-12.2316
▁hoophouse	-12.2316
▁appa	-12.2316
▁threaten	-12.2316
▁relev	-12.2316
▁framesi	-12.2316
_24-	-12.2316
▁emc	-12.2316
▁avon	-12.2317
▁mustard	-12.2317
▁blotting	-12.2317
▁brother	-12.2317
▁whiskers	-12.2317
▁shaun	-12.2317
▁james	-12.2317
▁footprint	-12.2317
▁springtime	-12.2317
▁encounter	-12.2317
▁lipslide	-12.2318
▁350	-12.2318
▁chipping	-12.2318
▁vacat	-12.2318
thetic	-12.2318
▁braking	-12.2318
▁cinch	-12.2318
▁improvement	-12.2318
▁intent	-12.2318
▁moisten	-12.2318
▁seaside	-12.2318
▁340	-12.2318
▁recently	-12.2318
▁sister	-12.2318
▁squi	-12.2318
▁compression	-12.2318
▁handyman	-12.2319
▁gross	-12.2319
▁booth	-12.2319
▁inspection	-12.2319
▁ordinary	-12.2319
▁zin	-12.2319
▁hassle	-12.2319
▁objective	-12.2319
▁casing	-12.232
▁durability	-12.232
▁drier	-12.232
▁crunches	-12.232
ilian	-12.232
▁admit	-12.2321
▁juli	-12.2321
▁124	-12.2321
▁toughness	-12.2322
▁bland	-12.2322
▁parry	-12.2322
▁popularity	-12.2323
▁frequency	-12.2323
▁117	-12.2323
▁motivated	-12.2323
▁strapless	-12.2323
▁accordingly	-12.2324
▁bach	-12.2324
▁vip	-12.2324
▁bandha	-12.2325
▁heartworm	-12.2325
▁buffer	-12.2325
▁peaches	-12.2325
▁electricity	-12.2325
▁jas	-12.2325
▁submi	-12.2325
▁bandage	-12.2326
erior	-12.2326
▁sweetness	-12.2326
▁hatch	-12.2327
▁poorly	-12.2328
▁sailor	-12.2328
▁megan	-12.2328
▁mindful	-12.2328
▁branches	-12.2328
▁discouraged	-12.2328
▁buddy	-12.2328
▁cancer	-12.2329
▁approved	-12.233
▁carrie	-12.233
▁stopper	-12.233
▁variable	-12.233
▁funky	-12.233
▁1800	-12.233
▁watercolor	-12.233
▁116	-12.2331
▁177	-12.2331
icia	-12.2331
perative	-12.2331
▁independently	-12.2331
▁134	-12.2332
▁adopt	-12.2333
▁beaten	-12.2334
▁jonesy	-12.2334
ionate	-12.2336
▁148	-12.2336
▁289	-12.2336
athy	-12.2337
▁beam	-12.2337
▁cloudy	-12.2337
▁crunchy	-12.2337
▁manufactured	-12.2337
▁coaches	-12.2338
▁stray	-12.2338
disc	-12.2339
▁sara	-12.2339
▁correction	-12.2339
▁114	-12.234
▁productive	-12.234
▁slippery	-12.2341
▁185	-12.2342
▁enjoyable	-12.2345
▁functional	-12.2346
▁charl	-12.2346
gene	-12.2347
ponent	-12.2347
▁morse	-12.2348
▁duration	-12.2348
▁146	-12.2349
▁135	-12.2349
▁successfully	-12.235
▁assigned	-12.2351
▁lovers	-12.2351
▁beau	-12.2353
▁dj	-12.2353
▁published	-12.2354
tional	-12.2358
▁153	-12.2359
▁mast	-12.2359
▁196	-12.2359
▁graden	-12.2366
▁bunches	-12.2371
chro	-12.2372
▁contractor	-12.2382
▁backpacker	-12.2388
mulated	-12.239
▁propa	-12.2394
▁medal	-12.2398
bility	-12.2399
▁juggl	-12.2404
▁poly	-12.2418
▁pil	-12.2422
▁divers	-12.2463
lori	-12.2474
oven	-12.2487
▁chlorin	-12.2492
rik	-12.2581
▁$500	-12.2683
chian	-12.2687
cepti	-12.2694
▁manipulat	-12.2724
4_16-	-12.2752
▁tactical	-12.2823
rank	-12.285
▁explod	-12.2884
▁misc	-12.2916
▁sch	-12.2933
▁pursua	-12.2945
▁cub	-12.2976
4_0-	-12.3008
▁lathe	-12.3138
4_10-	-12.3138
▁sali	-12.3157
4_13-	-12.3233
▁barbe	-12.3245
hoo	-12.3257
pes	-12.3276
crump	-12.3332
ike	-12.337
▁woke	-12.341
4_14-	-12.3468
4_9-	-12.3522
▁cautio	-12.3532
▁preserv	-12.3665
rising	-12.3823
idi	-12.3942
▁lubricat	-12.4077
potters	-12.4132
caution	-12.4164
▁190	-12.4229
▁proportional	-12.4242
▁elevat	-12.4296
▁glaz	-12.455
▁cultur	-12.4569
▁snapp	-12.466
gesture	-12.4699
string	-12.4864
mbie	-12.4938
▁rins	-12.4971
▁siz	-12.5073
103	-12.5109
gging	-12.5134
▁numeric	-12.5161
_20-	-12.5161
▁za	-12.5308
ification	-12.5322
4_21-	-12.5341
▁intensi	-12.5379
▁preset	-12.5383
▁lung	-12.5413
▁scallop	-12.5424
▁crap	-12.5428
▁folk	-12.543
▁resource	-12.543
▁contamina	-12.5445
▁memori	-12.5453
▁annu	-12.5471
▁tradition	-12.5491
aving	-12.552
corporate	-12.5542
▁inspir	-12.5569
▁quo	-12.5577
essive	-12.5578
4_20-	-12.5584
place	-12.559
▁incorporat	-12.5592
▁yea	-12.5603
base	-12.5606
▁secur	-12.5606
print	-12.5607
▁boost	-12.5609
piece	-12.5612
▁structur	-12.5614
duty	-12.5614
competitive	-12.5614
graduat	-12.5615
related	-12.5615
left	-12.5615
alcohol	-12.5615
shadow	-12.5615
firm	-12.5616
quarter	-12.5616
sheet	-12.5616
width	-12.5616
week	-12.5616
cook	-12.5616
leather	-12.5616
length	-12.5616
check	-12.5616
glue	-12.5616
type	-12.5616
help	-12.5616
again	-12.5616
which	-12.5616
hold	-12.5616
grip	-12.5616
brew	-12.5616
image	-12.5616
spin	-12.5618
undo	-12.5618
▁chrom	-12.5619
born	-12.5621
hole	-12.5621
paper	-12.5622
wipe	-12.5623
▁dehydrat	-12.5625
▁encourag	-12.5627
▁torqu	-12.563
▁approve	-12.5632
▁saturate	-12.5634
▁frequenc	-12.5634
▁fluff	-12.5635
▁era	-12.5635
▁tannin	-12.5635
▁histor	-12.5637
describ	-12.564
▁conceal	-12.564
▁recent	-12.564
▁ultimate	-12.5641
▁approximate	-12.5641
▁usual	-12.5641
noli	-12.5642
▁india	-12.5642
▁definite	-12.5642
▁thro	-12.5643
uddi	-12.5643
▁intestin	-12.5644
▁milli	-12.5644
▁tech	-12.5644
▁troph	-12.5645
▁affiliat	-12.5645
▁construct	-12.5645
raham	-12.5645
▁chronic	-12.5646
▁avail	-12.5646
gnant	-12.5646
cogniz	-12.5646
▁reproduc	-12.5646
▁sacr	-12.5646
umeric	-12.5647
▁yell	-12.5647
▁differ	-12.5647
▁reflex	-12.5647
myspace	-12.5647
▁companion	-12.5647
endorphin	-12.5647
ficient	-12.5647
foliant	-12.5647
fransisco	-12.5647
ontraindications	-12.5647
preposterous	-12.5647
responsibilities	-12.5647
responsive	-12.5647
scotch	-12.5647
sequent	-12.5647
twenties	-12.5647
urethane	-12.5647
▁abductors	-12.5647
▁academic	-12.5647
▁acupunctur	-12.5647
▁advertising	-12.5647
▁advisable	-12.5647
▁advocat	-12.5647
▁allergen	-12.5647
▁antibody	-12.5647
▁argue	-12.5647
▁artifact	-12.5647
▁astrology	-12.5647
▁attitude	-12.5647
▁attorney	-12.5647
▁australia	-12.5647
▁avocado	-12.5647
▁bancha	-12.5647
▁binocular	-12.5647
▁blaze	-12.5647
▁blossom	-12.5647
▁bouquet	-12.5647
▁bruise	-12.5647
▁bruising	-12.5647
▁bruschetta	-12.5647
▁buccola	-12.5647
▁buddhism	-12.5647
▁bunnies	-12.5647
▁capabilities	-12.5647
▁cappuccino	-12.5647
▁cauliflower	-12.5647
▁cavities	-12.5647
▁cereal	-12.5647
▁cheerlead	-12.5647
▁chiropractic	-12.5647
▁christopher	-12.5647
▁cinema	-12.5647
▁cleopatra	-12.5647
▁climax	-12.5647
▁closure	-12.5647
▁coffin	-12.5647
▁column	-12.5647
▁confirmation	-12.5647
▁conversely	-12.5647
▁coordinator	-12.5647
▁coyote	-12.5647
▁cradle	-12.5647
▁crimp	-12.5647
▁dairy	-12.5647
▁deadbolt	-12.5647
▁deliberately	-12.5647
▁democrat	-12.5647
▁diagnostic	-12.5647
▁dietitian	-12.5647
▁discomfort	-12.5647
▁dishwash	-12.5647
▁dislodged	-12.5647
▁dread	-12.5647
▁drown	-12.5647
▁effleurage	-12.5647
▁elaborate	-12.5647
▁elephant	-12.5647
▁embossing	-12.5647
▁entitle	-12.5647
▁etcetera	-12.5647
▁ethnic	-12.5647
▁etouffee	-12.5647
▁exacerbat	-12.5647
▁executi	-12.5647
▁fajita	-12.5647
▁february	-12.5647
▁feisty	-12.5647
▁fidget	-12.5647
▁firefox	-12.5647
▁fitzpatrick	-12.5647
▁foliage	-12.5647
▁forefinger	-12.5647
▁freya	-12.5647
▁fridge	-12.5647
▁gallery	-12.5647
▁garbett	-12.5647
▁gargle	-12.5647
▁george	-12.5647
▁giraffe	-12.5647
▁glycogen	-12.5647
▁grappl	-12.5647
▁grime	-12.5647
▁grommet	-12.5647
▁handkerchief	-12.5647
▁handwriting	-12.5647
▁hemisphere	-12.5647
▁hemostats	-12.5647
▁humming	-12.5647
▁hydrangeas	-12.5647
▁identification	-12.5647
▁illegal	-12.5647
▁imbalance	-12.5647
▁implies	-12.5647
▁industries	-12.5647
▁inventory	-12.5647
▁iridescen	-12.5647
▁itinerary	-12.5647
▁jonsey	-12.5647
▁karate	-12.5647
▁karen	-12.5647
▁kleenex	-12.5647
▁labarda	-12.5647
▁library	-12.5647
▁literacy	-12.5647
▁lucifer	-12.5647
▁ludman	-12.5647
▁macrobiotic	-12.5647
▁mathematic	-12.5647
▁meridian	-12.5647
▁microphone	-12.5647
▁military	-12.5647
▁mobber	-12.5647
▁monopoly	-12.5647
▁montana	-12.5647
▁mozzarella	-12.5647
▁muzzle	-12.5647
▁nebulizer	-12.5647
▁obstruct	-12.5647
▁october	-12.5647
▁omaha	-12.5647
▁oscar	-12.5647
▁oxidize	-12.5647
▁oysters	-12.5647
▁packaging	-12.5647
▁parakeet	-12.5647
▁pediatrics	-12.5647
▁pennsylvania	-12.5647
▁peppermint	-12.5647
▁peripheral	-12.5647
▁phillip	-12.5647
▁photocopy	-12.5647
▁physics	-12.5647
▁piranha	-12.5647
▁plaque	-12.5647
▁predictable	-12.5647
▁principal	-12.5647
▁puppet	-12.5647
▁quotations	-12.5647
▁reattach	-12.5647
▁refinish	-12.5647
▁rehydrate	-12.5647
▁replenish	-12.5647
▁republican	-12.5647
▁reservation	-12.5647
▁reservoir	-12.5647
▁resolution	-12.5647
▁resupply	-12.5647
▁ricta	-12.5647
▁robinson	-12.5647
▁rudy	-12.5647
▁saxophone	-12.5647
▁schnapps	-12.5647
▁scramble	-12.5647
▁scrambling	-12.5647
▁scuff	-12.5647
▁seascape	-12.5647
▁seatbelt	-12.5647
▁shannon	-12.5647
▁shoelace	-12.5647
▁shrub	-12.5647
▁simplified	-12.5647
▁situated	-12.5647
▁sleek	-12.5647
▁slender	-12.5647
▁sniff	-12.5647
▁spectrum	-12.5647
▁squeamish	-12.5647
▁stencil	-12.5647
▁substrate	-12.5647
▁surcingle	-12.5647
▁talent	-12.5647
▁technology	-12.5647
▁thursdays	-12.5647
▁tiffany	-12.5647
▁toothpick	-12.5647
▁trample	-12.5647
▁unattended	-12.5647
▁universal	-12.5647
▁universe	-12.5647
▁unusual	-12.5647
▁warranties	-12.5647
▁wednesday	-12.5647
▁whitley	-12.5647
▁workshop	-12.5647
▁yogurt	-12.5647
▁cornbread	-12.5647
▁craze	-12.5647
▁crime	-12.5647
▁dupli	-12.5647
▁erupt	-12.5647
▁fancier	-12.5647
▁freak	-12.5647
▁interrupt	-12.5647
▁intertwine	-12.5647
▁margin	-12.5647
▁palpat	-12.5647
▁quadrup	-12.5647
▁shingle	-12.5647
▁sidewall	-12.5647
▁sparring	-12.5647
▁struts	-12.5647
▁surgical	-12.5647
▁trough	-12.5647
▁wanna	-12.5647
=	-12.5647
avior	-12.5647
satisfaction	-12.5647
scilla	-12.5647
▁acetone	-12.5647
▁allergy	-12.5647
▁draft	-12.5647
▁ebay	-12.5647
▁editing	-12.5647
▁kiwi	-12.5647
▁peck	-12.5647
▁rainbow	-12.5647
▁resort	-12.5647
▁shrink	-12.5647
▁sterile	-12.5647
cotta	-12.5647
▁armpit	-12.5647
▁chestnut	-12.5647
▁hovering	-12.5647
▁huh	-12.5647
▁liking	-12.5647
▁pokemon	-12.5647
▁relieving	-12.5647
▁tableau	-12.5647
irritating	-12.5647
▁costuming	-12.5647
▁daddy	-12.5647
▁elliot	-12.5647
▁shank	-12.5647
▁classmate	-12.5647
▁lease	-12.5647
▁loyal	-12.5647
▁luke	-12.5647
▁apron	-12.5647
▁dialog	-12.5647
▁euro	-12.5647
▁flier	-12.5647
▁haunt	-12.5647
▁loft	-12.5647
▁prettie	-12.5647
▁uppercut	-12.5647
▁orchid	-12.5647
▁trout	-12.5647
▁biography	-12.5647
▁claim	-12.5647
▁dozen	-12.5647
▁rasp	-12.5647
▁zig	-12.5647
▁hugg	-12.5647
▁aphid	-12.5647
▁feces	-12.5647
▁goofy	-12.5647
▁lobster	-12.5647
▁iodize	-12.5647
▁ornament	-12.5647
▁rugged	-12.5647
▁granted	-12.5647
▁export	-12.5647
▁struggl	-12.5647
▁joseph	-12.5647
▁alexson	-12.5647
▁infra	-12.5647
▁intuiti	-12.5647
▁miserable	-12.5647
▁auger	-12.5647
▁conclusion	-12.5647
▁innovati	-12.5647
▁kelly	-12.5647
▁pedest	-12.5647
cient	-12.5647
▁penny	-12.5647
▁undercut	-12.5647
▁capture	-12.5647
▁instant	-12.5647
▁absorbent	-12.5647
pronounce	-12.5647
▁canada	-12.5647
▁sieve	-12.5647
clarke	-12.5647
▁navasana	-12.5647
▁pacing	-12.5647
▁entries	-12.5647
▁among	-12.5647
▁intro	-12.5647
▁cpr	-12.5647
▁buggy	-12.5647
▁hoof	-12.5647
ulent	-12.5647
▁civilization	-12.5647
▁skillet	-12.5647
▁narr	-12.5647
▁creation	-12.5647
▁genre	-12.5647
▁crest	-12.5647
▁eyelets	-12.5647
▁poison	-12.5647
▁begun	-12.5647
▁ornate	-12.5647
▁sherry	-12.5648
▁$100	-12.5648
▁monst	-12.5648
▁shading	-12.5648
▁decaffeinated	-12.5648
▁repack	-12.5648
▁bomb	-12.5648
plex	-12.5648
▁yum	-12.5648
▁hump	-12.5648
▁lame	-12.5648
▁roundworms	-12.5648
▁federa	-12.5648
▁commitment	-12.5648
▁sacrum	-12.5648
▁placemat	-12.5648
▁alco	-12.5648
▁forgotten	-12.5648
▁thermo	-12.5648
▁inhibit	-12.5648
▁ranking	-12.5648
▁midpoint	-12.5648
▁interpretation	-12.5648
▁description	-12.5648
▁investment	-12.5648
▁interactive	-12.5648
▁precaution	-12.5648
▁hue	-12.5648
▁notebook	-12.5648
▁punish	-12.5648
▁unplugged	-12.5648
▁phonebook	-12.5648
▁confinement	-12.5648
▁stylus	-12.5648
▁surfboard	-12.5648
▁wakeboard	-12.5648
▁imagination	-12.5648
©	-13.0647
ã	-13.0647
+	-13.0647
¦	-14.0647
	-14.7209
	-14.721
́	-14.7211
[	-14.7212
$	-14.7213
(	-14.7214
	-14.7215
